{
  "version": "1.0",
  "truncation": {
    "direction": "Right",
    "max_length": 20,
    "strategy": "LongestFirst",
    "stride": 0
  },
  "padding": {
    "strategy": {
      "Fixed": 20
    },
    "direction": "Right",
    "pad_to_multiple_of": null,
    "pad_id": 1,
    "pad_type_id": 0,
    "pad_token": "<pad>"
  },
  "added_tokens": [
    {
      "id": 0,
      "content": "<s>",
      "single_word": false,
      "lstrip": false,
      "rstrip": false,
      "normalized": true,
      "special": true
    },
    {
      "id": 1,
      "content": "<pad>",
      "single_word": false,
      "lstrip": false,
      "rstrip": false,
      "normalized": true,
      "special": true
    },
    {
      "id": 2,
      "content": "</s>",
      "single_word": false,
      "lstrip": false,
      "rstrip": false,
      "normalized": true,
      "special": true
    },
    {
      "id": 3,
      "content": "<unk>",
      "single_word": false,
      "lstrip": false,
      "rstrip": false,
      "normalized": true,
      "special": true
    },
    {
      "id": 4,
      "content": "<mask>",
      "single_word": false,
      "lstrip": true,
      "rstrip": false,
      "normalized": true,
      "special": true
    }
  ],
  "normalizer": null,
  "pre_tokenizer": {
    "type": "ByteLevel",
    "add_prefix_space": true,
    "trim_offsets": true,
    "use_regex": true
  },
  "post_processor": {
    "type": "RobertaProcessing",
    "sep": [
      "</s>",
      2
    ],
    "cls": [
      "<s>",
      0
    ],
    "trim_offsets": true,
    "add_prefix_space": true
  },
  "decoder": {
    "type": "ByteLevel",
    "add_prefix_space": true,
    "trim_offsets": true,
    "use_regex": true
  },
  "model": {
    "type": "BPE",
    "dropout": null,
    "unk_token": null,
    "continuing_subword_prefix": "",
    "end_of_word_suffix": "",
    "fuse_unk": false,
    "vocab": {
      "<s>": 0,
      "<pad>": 1,
      "</s>": 2,
      "<unk>": 3,
      "<mask>": 4,
      "!": 5,
      "\"": 6,
      "#": 7,
      "$": 8,
      "%": 9,
      "&": 10,
      "'": 11,
      "(": 12,
      ")": 13,
      "*": 14,
      "+": 15,
      ",": 16,
      "-": 17,
      ".": 18,
      "/": 19,
      "0": 20,
      "1": 21,
      "2": 22,
      "3": 23,
      "4": 24,
      "5": 25,
      "6": 26,
      "7": 27,
      "8": 28,
      "9": 29,
      ":": 30,
      ";": 31,
      "<": 32,
      "=": 33,
      ">": 34,
      "?": 35,
      "@": 36,
      "A": 37,
      "B": 38,
      "C": 39,
      "D": 40,
      "E": 41,
      "F": 42,
      "G": 43,
      "H": 44,
      "I": 45,
      "J": 46,
      "K": 47,
      "L": 48,
      "M": 49,
      "N": 50,
      "O": 51,
      "P": 52,
      "Q": 53,
      "R": 54,
      "S": 55,
      "T": 56,
      "U": 57,
      "V": 58,
      "W": 59,
      "X": 60,
      "Y": 61,
      "Z": 62,
      "[": 63,
      "\\": 64,
      "]": 65,
      "^": 66,
      "_": 67,
      "`": 68,
      "a": 69,
      "b": 70,
      "c": 71,
      "d": 72,
      "e": 73,
      "f": 74,
      "g": 75,
      "h": 76,
      "i": 77,
      "j": 78,
      "k": 79,
      "l": 80,
      "m": 81,
      "n": 82,
      "o": 83,
      "p": 84,
      "q": 85,
      "r": 86,
      "s": 87,
      "t": 88,
      "u": 89,
      "v": 90,
      "w": 91,
      "x": 92,
      "y": 93,
      "z": 94,
      "{": 95,
      "|": 96,
      "}": 97,
      "~": 98,
      "¡": 99,
      "¢": 100,
      "£": 101,
      "¤": 102,
      "¥": 103,
      "¦": 104,
      "§": 105,
      "¨": 106,
      "©": 107,
      "ª": 108,
      "«": 109,
      "¬": 110,
      "®": 111,
      "¯": 112,
      "°": 113,
      "±": 114,
      "²": 115,
      "³": 116,
      "´": 117,
      "µ": 118,
      "¶": 119,
      "·": 120,
      "¸": 121,
      "¹": 122,
      "º": 123,
      "»": 124,
      "¼": 125,
      "½": 126,
      "¾": 127,
      "¿": 128,
      "À": 129,
      "Á": 130,
      "Â": 131,
      "Ã": 132,
      "Ä": 133,
      "Å": 134,
      "Æ": 135,
      "Ç": 136,
      "È": 137,
      "É": 138,
      "Ê": 139,
      "Ë": 140,
      "Ì": 141,
      "Í": 142,
      "Î": 143,
      "Ï": 144,
      "Ð": 145,
      "Ñ": 146,
      "Ò": 147,
      "Ó": 148,
      "Ô": 149,
      "Õ": 150,
      "Ö": 151,
      "×": 152,
      "Ø": 153,
      "Ù": 154,
      "Ú": 155,
      "Û": 156,
      "Ü": 157,
      "Ý": 158,
      "Þ": 159,
      "ß": 160,
      "à": 161,
      "á": 162,
      "â": 163,
      "ã": 164,
      "ä": 165,
      "å": 166,
      "æ": 167,
      "ç": 168,
      "è": 169,
      "é": 170,
      "ê": 171,
      "ë": 172,
      "ì": 173,
      "í": 174,
      "î": 175,
      "ï": 176,
      "ð": 177,
      "ñ": 178,
      "ò": 179,
      "ó": 180,
      "ô": 181,
      "õ": 182,
      "ö": 183,
      "÷": 184,
      "ø": 185,
      "ù": 186,
      "ú": 187,
      "û": 188,
      "ü": 189,
      "ý": 190,
      "þ": 191,
      "ÿ": 192,
      "Ā": 193,
      "ā": 194,
      "Ă": 195,
      "ă": 196,
      "Ą": 197,
      "ą": 198,
      "Ć": 199,
      "ć": 200,
      "Ĉ": 201,
      "ĉ": 202,
      "Ċ": 203,
      "ċ": 204,
      "Č": 205,
      "č": 206,
      "Ď": 207,
      "ď": 208,
      "Đ": 209,
      "đ": 210,
      "Ē": 211,
      "ē": 212,
      "Ĕ": 213,
      "ĕ": 214,
      "Ė": 215,
      "ė": 216,
      "Ę": 217,
      "ę": 218,
      "Ě": 219,
      "ě": 220,
      "Ĝ": 221,
      "ĝ": 222,
      "Ğ": 223,
      "ğ": 224,
      "Ġ": 225,
      "ġ": 226,
      "Ģ": 227,
      "ģ": 228,
      "Ĥ": 229,
      "ĥ": 230,
      "Ħ": 231,
      "ħ": 232,
      "Ĩ": 233,
      "ĩ": 234,
      "Ī": 235,
      "ī": 236,
      "Ĭ": 237,
      "ĭ": 238,
      "Į": 239,
      "į": 240,
      "İ": 241,
      "ı": 242,
      "Ĳ": 243,
      "ĳ": 244,
      "Ĵ": 245,
      "ĵ": 246,
      "Ķ": 247,
      "ķ": 248,
      "ĸ": 249,
      "Ĺ": 250,
      "ĺ": 251,
      "Ļ": 252,
      "ļ": 253,
      "Ľ": 254,
      "ľ": 255,
      "Ŀ": 256,
      "ŀ": 257,
      "Ł": 258,
      "ł": 259,
      "Ń": 260,
      "Ã¼": 261,
      "er": 262,
      "ar": 263,
      "ÅŁ": 264,
      "an": 265,
      "in": 266,
      "Ġb": 267,
      "il": 268,
      "en": 269,
      "Ġk": 270,
      "Ġs": 271,
      "ir": 272,
      "ÄŁ": 273,
      "iz": 274,
      "im": 275,
      "Ã§": 276,
      "de": 277,
      "Ġg": 278,
      "al": 279,
      "ma": 280,
      "ol": 281,
      "Ġi": 282,
      "ek": 283,
      "el": 284,
      "or": 285,
      "ak": 286,
      "Ġy": 287,
      "±n": 288,
      "Ä±n": 289,
      "Ġt": 290,
      "Ã¼n": 291,
      "et": 292,
      "Ã¶": 293,
      "iy": 294,
      "on": 295,
      "lÄ": 296,
      "lÄ±": 297,
      "Ġd": 298,
      "Ã¼r": 299,
      "ed": 300,
      "±m": 301,
      "Ä±m": 302,
      "un": 303,
      "ab": 304,
      "em": 305,
      "Ġh": 306,
      "Ġol": 307,
      "Ġv": 308,
      "um": 309,
      "es": 310,
      "Ġm": 311,
      "at": 312,
      "ay": 313,
      "ler": 314,
      "as": 315,
      "ik": 316,
      "iniz": 317,
      "ĠK": 318,
      "±z": 319,
      "Ä±z": 320,
      "ur": 321,
      "ok": 322,
      "iÅŁ": 323,
      "am": 324,
      "Ġbir": 325,
      "ĠÃ§": 326,
      "Ġa": 327,
      "da": 328,
      "ul": 329,
      "±r": 330,
      "Ä±r": 331,
      "ĠiÃ§": 332,
      "ap": 333,
      "Ġde": 334,
      "st": 335,
      "Ġal": 336,
      "ĠS": 337,
      "Ã¼rÃ¼n": 338,
      "Ġve": 339,
      "lar": 340,
      "iyor": 341,
      "ilir": 342,
      "lan": 343,
      "ĠgÃ¶": 344,
      "aÄŁ": 345,
      "Ġn": 346,
      "ey": 347,
      "ĠiÃ§in": 348,
      "Ã¼z": 349,
      "Ġf": 350,
      "ĠT": 351,
      "ĠÃ¼rÃ¼n": 352,
      "li": 353,
      "Ġed": 354,
      "yor": 355,
      "ĠB": 356,
      "Ġ1": 357,
      "Ġil": 358,
      "la": 359,
      "ĠA": 360,
      "is": 361,
      "erim": 362,
      "±ÅŁ": 363,
      "Ä±ÅŁ": 364,
      "di": 365,
      "±k": 366,
      "Ä±k": 367,
      "le": 368,
      "ip": 369,
      "±lÄ±": 370,
      "Ä±lÄ±": 371,
      "az": 372,
      "uz": 373,
      "Ġp": 374,
      "Ġsiz": 375,
      "eb": 376,
      "end": 377,
      "Ġgel": 378,
      "ah": 379,
      "ce": 380,
      "dan": 381,
      "ĠÃ¶": 382,
      "Ġr": 383,
      "±l": 384,
      "Ä±l": 385,
      "erh": 386,
      "dÄ": 387,
      "dÄ±": 388,
      "aÅŁ": 389,
      "Ġkar": 390,
      "it": 391,
      "dÄ±m": 392,
      "Ä±nÄ±z": 393,
      "ĠÃ§ok": 394,
      "ĠM": 395,
      "den": 396,
      "Ä°": 397,
      "lu": 398,
      "aba": 399,
      "Ġc": 400,
      "ac": 401,
      "ĠÃ": 402,
      "Ġ2": 403,
      "Ġyap": 404,
      "ade": 405,
      "ĠP": 406,
      "ĠgÃ¶r": 407,
      "ĠgÃ¼n": 408,
      "ĠD": 409,
      "eÅŁ": 410,
      "ipar": 411,
      "ef": 412,
      "ĠÅŁ": 413,
      "ev": 414,
      "±s": 415,
      "Ä±s": 416,
      "Ġhan": 417,
      "Ġist": 418,
      "Ġbu": 419,
      "du": 420,
      "iyorum": 421,
      "abilir": 422,
      "ĠsaÄŁ": 423,
      "ark": 424,
      "ut": 425,
      "tr": 426,
      "lem": 427,
      "oy": 428,
      "cÄ": 429,
      "cÄ±": 430,
      "00": 431,
      "Ġkon": 432,
      "Ä±lÄ±f": 433,
      "ĠG": 434,
      "ipariÅŁ": 435,
      "ama": 436,
      "iÄŁ": 437,
      "erhaba": 438,
      "ĠdeÄŁ": 439,
      "Ã¼ÅŁ": 440,
      "Ġver": 441,
      "ilm": 442,
      "ic": 443,
      "ĠhanÄ±m": 444,
      "ekk": 445,
      "ad": 446,
      "Ã¼k": 447,
      "uy": 448,
      "mak": 449,
      "ullan": 450,
      "inde": 451,
      "Ã¼m": 452,
      "ĠKÄ±lÄ±f": 453,
      "ĠY": 454,
      "Ġan": 455,
      "Ġile": 456,
      "eniz": 457,
      "Ġet": 458,
      "Ġkarg": 459,
      "mas": 460,
      "ekkÃ¼r": 461,
      "Ġkal": 462,
      "arak": 463,
      "eÅŁekkÃ¼r": 464,
      "dÄ±ÄŁ": 465,
      "Ġkullan": 466,
      "Ġvar": 467,
      "±yor": 468,
      "Ä±yor": 469,
      "Ġiade": 470,
      "ĠsipariÅŁ": 471,
      "ini": 472,
      "eden": 473,
      "Ġbil": 474,
      "Ġyar": 475,
      "ede": 476,
      "Ġdil": 477,
      "ĠsÃ¼r": 478,
      "Ä±nda": 479,
      "Ġson": 480,
      "lim": 481,
      "dir": 482,
      "esi": 483,
      "Ġger": 484,
      "lÄ±k": 485,
      "ĠH": 486,
      "af": 487,
      "ec": 488,
      "siniz": 489,
      "gi": 490,
      "Ġay": 491,
      "ĠE": 492,
      "uÅŁ": 493,
      "Ã¼zel": 494,
      "ebilir": 495,
      "der": 496,
      "dÄ±mcÄ±": 497,
      "ĠiÅŁ": 498,
      "Ġben": 499,
      "Ġz": 500,
      "Ġ-": 501,
      "Ġederim": 502,
      "ĠC": 503,
      "ot": 504,
      "Ġ3": 505,
      "Ġoldu": 506,
      "Ġtes": 507,
      "sun": 508,
      "lik": 509,
      "eÃ§": 510,
      "me": 511,
      "ib": 512,
      "ľr": 513,
      "alar": 514,
      "Ìĩ": 515,
      "Ġama": 516,
      "ĠkÄ±s": 517,
      "acak": 518,
      "mÄ±ÅŁ": 519,
      "Ġolarak": 520,
      "leri": 521,
      "Ġbey": 522,
      "ekt": 523,
      "Ä±na": 524,
      "ĠteÅŁekkÃ¼r": 525,
      "ĠyardÄ±mcÄ±": 526,
      "Ġdur": 527,
      "ľrÃ¼n": 528,
      "ĠgÃ¼zel": 529,
      "ya": 530,
      "yi": 531,
      "om": 532,
      "iye": 533,
      "dÄ±r": 534,
      "anÄ±z": 535,
      "uk": 536,
      "ekl": 537,
      "av": 538,
      "Ġteslim": 539,
      "merhaba": 540,
      "ĠU": 541,
      "Ġma": 542,
      "umar": 543,
      "siz": 544,
      "trol": 545,
      "elef": 546,
      "elefon": 547,
      "ĠgÃ¶n": 548,
      "asÄ": 549,
      "asÄ±": 550,
      "tÄ": 551,
      "tÄ±": 552,
      "Ġad": 553,
      "alÄ": 554,
      "alÄ±": 555,
      "ta": 556,
      "ece": 557,
      "Ġak": 558,
      "gil": 559,
      "eri": 560,
      "Ġ?": 561,
      "Ġsize": 562,
      "Ġar": 563,
      "ĠL": 564,
      "ĠR": 565,
      "Ġkargo": 566,
      "Ġilet": 567,
      "Ä±nÄ": 568,
      "Ä±nÄ±": 569,
      "Ġda": 570,
      "eÄŁ": 571,
      "oÅŁ": 572,
      "Ġfark": 573,
      "Ġuy": 574,
      "tÄ±r": 575,
      "ine": 576,
      "atÄ": 577,
      "atÄ±": 578,
      "eli": 579,
      "Ġede": 580,
      "ĠF": 581,
      "ĠgÃ¼nler": 582,
      "cak": 583,
      "ra": 584,
      "tir": 585,
      "Ġ<": 586,
      "Ġdah": 587,
      "Ġ4": 588,
      "ĠÃ¶z": 589,
      "ĠÃ¶n": 590,
      "ĠÃĩ": 591,
      "Ġin": 592,
      "Ġkonu": 593,
      "Ġdilerim": 594,
      "endir": 595,
      "lÃ¼": 596,
      "se": 597,
      "ĠÃ¼": 598,
      "Ã¶n": 599,
      "ĠgÃ¶nder": 600,
      "ibi": 601,
      "Ġnumar": 602,
      "ĠiÅŁlem": 603,
      "ĠO": 604,
      "lay": 605,
      "Ġsor": 606,
      "Ġyan": 607,
      "Ġ5": 608,
      "eceÄŁ": 609,
      "asÄ±l": 610,
      "oÄŁ": 611,
      "sa": 612,
      "ediÄŁ": 613,
      "Ġgeldi": 614,
      "Merhaba": 615,
      "ki": 616,
      "Ġolma": 617,
      "larÄ": 618,
      "larÄ±": 619,
      "Ġmi": 620,
      "Ġdurum": 621,
      "ask": 622,
      "masÄ": 623,
      "masÄ±": 624,
      "det": 625,
      "cel": 626,
      "Ġgibi": 627,
      "eti": 628,
      "ĠfarklÄ±": 629,
      "Ġric": 630,
      "Ġdaha": 631,
      "ĠkÄ±sa": 632,
      "imiz": 633,
      "Ġtar": 634,
      "inizi": 635,
      "Ġyok": 636,
      "Ġren": 637,
      "ĠN": 638,
      "ĠdeÄŁil": 639,
      "20": 640,
      "uyor": 641,
      "endim": 642,
      "ĠÃ§Ä±k": 643,
      "ĠolduÄŁ": 644,
      "Ġtek": 645,
      "ti": 646,
      "Ġbeden": 647,
      "ala": 648,
      "te": 649,
      "Ġiyi": 650,
      "Ġkontrol": 651,
      "Ġel": 652,
      "iyim": 653,
      "ih": 654,
      "ĠÃ¼z": 655,
      "ĠgeÃ§": 656,
      "Ġ(": 657,
      "Ġon": 658,
      "ĠV": 659,
      "tan": 660,
      "uma": 661,
      "Ġsev": 662,
      "ĠdeÄŁer": 663,
      "Ġyaz": 664,
      "us": 665,
      "Ġul": 666,
      "aman": 667,
      "ĠnasÄ±l": 668,
      "ime": 669,
      "Ġ:": 670,
      "Ġsizler": 671,
      "ĠÄ°": 672,
      "Ġetm": 673,
      "diniz": 674,
      "ep": 675,
      "nun": 676,
      "Ġcm": 677,
      "dim": 678,
      "ro": 679,
      "Åŀ": 680,
      "Ġek": 681,
      "ĠiÃ§er": 682,
      "ĠI": 683,
      "Ġo": 684,
      "ĠmÄ": 685,
      "ĠmÄ±": 686,
      "emnun": 687,
      "Ġolabilir": 688,
      "Ġgerek": 689,
      "Ä±ndan": 690,
      "Ġfir": 691,
      "lendir": 692,
      "ez": 693,
      "up": 694,
      "10": 695,
      "ĠgÃ¶rÃ¼n": 696,
      "edir": 697,
      "yol": 698,
      "Ġbekl": 699,
      "ĠbaÅŁ": 700,
      "Ġen": 701,
      "seniz": 702,
      "Ġuyg": 703,
      "..": 704,
      "ilik": 705,
      "Ġ;": 706,
      "Ġmu": 707,
      "mÄ": 708,
      "mÄ±": 709,
      "umlu": 710,
      "ĠulaÅŁ": 711,
      "iyet": 712,
      "Ġzaman": 713,
      "aket": 714,
      "Ġboy": 715,
      "??": 716,
      "emiz": 717,
      "Ġkalit": 718,
      "Ġtak": 719,
      "Ġ6": 720,
      "aÃ§": 721,
      "si": 722,
      "Ġgeldiniz": 723,
      "Ġmemnun": 724,
      "Ġbul": 725,
      "Ġpar": 726,
      "olay": 727,
      "os": 728,
      "Ġ20": 729,
      "ĠTelefon": 730,
      "ĠÃĸ": 731,
      "ĠKÄ±lÄ±fÄ": 732,
      "ĠKÄ±lÄ±fÄ±": 733,
      "op": 734,
      "abilirsiniz": 735,
      "edi": 736,
      "endyol": 737,
      "if": 738,
      "ĠsÃ¼re": 739,
      "tim": 740,
      "ĠÃľrÃ¼n": 741,
      "Ãĩ": 742,
      "dur": 743,
      "abil": 744,
      "Ġadet": 745,
      "ecek": 746,
      "tal": 747,
      "ca": 748,
      "miÅŁ": 749,
      "unu": 750,
      "amam": 751,
      "res": 752,
      "asar": 753,
      "Ã¼l": 754,
      "Ġrica": 755,
      "ĠgÃ¶rÃ¼ÅŁ": 756,
      "ÃľrÃ¼n": 757,
      "Ġne": 758,
      "Ġbel": 759,
      "lÄ±klÄ±": 760,
      "ist": 761,
      "kon": 762,
      "unuz": 763,
      "ver": 764,
      "Ã¶z": 765,
      "ag": 766,
      "emen": 767,
      "Ä±nÄ±za": 768,
      "yle": 769,
      "Ġban": 770,
      "Ġkad": 771,
      "inden": 772,
      "Ġediyorum": 773,
      "ket": 774,
      "Ġmiyim": 775,
      "ĠÃ¼zer": 776,
      "ben": 777,
      "ilmiÅŁ": 778,
      "Ġkap": 779,
      "diÄŁ": 780,
      "Ġolur": 781,
      "Ġbiz": 782,
      "ekil": 783,
      "Ġac": 784,
      "Ġolan": 785,
      "Ã¼yor": 786,
      "iyah": 787,
      "ĠUy": 788,
      "Ġedeb": 789,
      "Ã¶r": 790,
      "abalar": 791,
      "isiniz": 792,
      "ĠyaÅŁ": 793,
      "ĠadÄ±na": 794,
      "cr": 795,
      "bu": 796,
      "ode": 797,
      "Ġef": 798,
      "Ġisterim": 799,
      "±t": 800,
      "Ä±t": 801,
      "isi": 802,
      "ĠÃ¼rÃ¼nler": 803,
      "sel": 804,
      "ediÄŁiniz": 805,
      "ĠÃ¼rÃ¼nÃ¼n": 806,
      "Ġsonra": 807,
      "erhabalar": 808,
      "Ġmut": 809,
      "Ġ/": 810,
      "Ãľ": 811,
      "dÄ±ÄŁÄ±nÄ±z": 812,
      "Ġ8": 813,
      "imi": 814,
      "Ġedil": 815,
      "Ġhes": 816,
      "enli": 817,
      "tur": 818,
      "ĠaÃ§": 819,
      "Ã¼y": 820,
      "ĠalÄ±n": 821,
      "arik": 822,
      "ter": 823,
      "ilikon": 824,
      "ĠdeÄŁerlendir": 825,
      "ĠaldÄ±m": 826,
      "rar": 827,
      "Ġtal": 828,
      "tik": 829,
      "Ġki": 830,
      "askÄ±lÄ±": 831,
      "âĢ": 832,
      "Ä±yorum": 833,
      "akk": 834,
      "arka": 835,
      "ÅŁÄ": 836,
      "ÅŁÄ±": 837,
      "ant": 838,
      "iÃ§": 839,
      "Ġ7": 840,
      "irt": 841,
      "evet": 842,
      "arÄ": 843,
      "arÄ±": 844,
      "isinde": 845,
      "ĠUyumlu": 846,
      "iyat": 847,
      "Ġayn": 848,
      "Ġbulun": 849,
      "acaÄŁ": 850,
      "erek": 851,
      "art": 852,
      "ka": 853,
      "hoÅŁ": 854,
      "tiÄŁ": 855,
      "Ã¼zdan": 856,
      "Ġ9": 857,
      "dirim": 858,
      "Ġefendim": 859,
      "xy": 860,
      "Ġkay": 861,
      "lÄ±ÄŁ": 862,
      "Ġ10": 863,
      "alaxy": 864,
      "Ġanket": 865,
      "ĠÃ¼rÃ¼nÃ¼": 866,
      "Ġkadar": 867,
      "uc": 868,
      "ekilde": 869,
      "Ġrenk": 870,
      "Ġip": 871,
      "ĠsaÄŁlÄ±klÄ±": 872,
      "abi": 873,
      "mek": 874,
      "ran": 875,
      "tÃ¼": 876,
      "len": 877,
      "ĠDes": 878,
      "ĠKap": 879,
      "ht": 880,
      "oya": 881,
      "od": 882,
      "50": 883,
      "ĠiÃ§erisinde": 884,
      "><": 885,
      "sunuz": 886,
      "Ġuygun": 887,
      "eni": 888,
      "eler": 889,
      "Ġuz": 890,
      "akat": 891,
      "odel": 892,
      "ĠsaÄŁlan": 893,
      "ER": 894,
      "cret": 895,
      "±p": 896,
      "Ä±p": 897,
      "Ġl": 898,
      "Ġtr": 899,
      "21": 900,
      "Ġistiyorum": 901,
      "Ġtekrar": 902,
      "Ġtl": 903,
      "Ġtelefon": 904,
      "Ġor": 905,
      "ĠÅŁekilde": 906,
      "Ä±sÄ": 907,
      "Ä±sÄ±": 908,
      "ahat": 909,
      "Ä±mÄ±z": 910,
      "imde": 911,
      "ayet": 912,
      "oz": 913,
      "Ġ.": 914,
      "oc": 915,
      "ĠÅŀ": 916,
      "Ġmutlu": 917,
      "amsun": 918,
      "Ä±mÄ": 919,
      "Ä±mÄ±": 920,
      "amsung": 921,
      "maz": 922,
      "mi": 923,
      "Ġise": 924,
      "ĠBaskÄ±lÄ±": 925,
      "laÅŁ": 926,
      "yorum": 927,
      "ĠÂ": 928,
      "lam": 929,
      "Ġsizlere": 930,
      "Ġolmak": 931,
      "man": 932,
      "Ġtan": 933,
      "Ġbilgi": 934,
      "adÄ±r": 935,
      "Ġolabilirim": 936,
      "Ġilgil": 937,
      "ĠgÃ¶rÃ¼ÅŁm": 938,
      "Ġsorun": 939,
      "ĠoluÅŁ": 940,
      "ĠdeÄŁiÅŁ": 941,
      "urun": 942,
      "Ġst": 943,
      "alÄ±ÅŁ": 944,
      "ken": 945,
      "Ġtam": 946,
      "Ä±zlÄ±": 947,
      "ĠdÃ¶n": 948,
      "tar": 949,
      "ĠÃ¼r": 950,
      "makt": 951,
      "tÄ±m": 952,
      "Ġyer": 953,
      "Ġedebilir": 954,
      "ĠÂ·": 955,
      "anÄ±zÄ": 956,
      "anÄ±zÄ±": 957,
      "iler": 958,
      "ĠSilikon": 959,
      "may": 960,
      "aat": 961,
      "eceÄŁim": 962,
      "Ġadres": 963,
      "Ġmemnuniyet": 964,
      "ĠÅŁu": 965,
      "ch": 966,
      "ektedir": 967,
      "br": 968,
      "ĠÃ¼ret": 969,
      "ĠAy": 970,
      "Ġtaraf": 971,
      "Ġacaba": 972,
      "ye": 973,
      "Ġiptal": 974,
      "oÄŁr": 975,
      "Ġhesab": 976,
      "gÃ¼n": 977,
      "ebil": 978,
      "ĠÃ¶zÃ¼r": 979,
      "aki": 980,
      "Ġrahat": 981,
      "ĠcÃ¼zdan": 982,
      "edim": 983,
      "AR": 984,
      "Ġfakat": 985,
      "Ã¼Ã§": 986,
      "ĠiÃ§inde": 987,
      "id": 988,
      "Ġfiyat": 989,
      "izm": 990,
      "lÃ§": 991,
      "inin": 992,
      "Ġ0": 993,
      "ĠÃ¼cret": 994,
      "Ġden": 995,
      "enizi": 996,
      "Ã§ok": 997,
      "ĠaynÄ": 998,
      "ĠaynÄ±": 999,
      "ĠyapÄ±l": 1000,
      "tamam": 1001,
      "ĠÃ§alÄ±ÅŁ": 1002,
      "Ġkur": 1003,
      "Samsung": 1004,
      "Ġgelm": 1005,
      "ĠsaÄŁlay": 1006,
      "Ġtrendyol": 1007,
      "lama": 1008,
      "Ġpaket": 1009,
      "Ġolacak": 1010,
      "ĠistediÄŁiniz": 1011,
      "abl": 1012,
      "Ġkor": 1013,
      "ĠGalaxy": 1014,
      "ĠÃ¶zel": 1015,
      "Ã¼yÃ¼k": 1016,
      "Ġgeri": 1017,
      "adece": 1018,
      "fen": 1019,
      "asarÄ±m": 1020,
      "ili": 1021,
      "Ġ,": 1022,
      "ren": 1023,
      "Ġdest": 1024,
      "Ġtut": 1025,
      "liÄŁ": 1026,
      "teÅŁekkÃ¼r": 1027,
      "irim": 1028,
      "Ġbi": 1029,
      "Ġbak": 1030,
      "Ġmisiniz": 1031,
      "Ã¼s": 1032,
      "30": 1033,
      "arg": 1034,
      "Ã§a": 1035,
      "Ġkaliteli": 1036,
      "Ã¼ÅŁt": 1037,
      "eriz": 1038,
      "11": 1039,
      "Ġsizden": 1040,
      "Ġkes": 1041,
      "atÄ±cÄ±": 1042,
      "Ġher": 1043,
      "ĠyÃ¼k": 1044,
      "ebilirsiniz": 1045,
      "maktadÄ±r": 1046,
      "Ġhizm": 1047,
      "celik": 1048,
      "ĠÃ§Ã¶z": 1049,
      "Ġya": 1050,
      "unda": 1051,
      "tfen": 1052,
      "Ġkargoya": 1053,
      "--": 1054,
      "Ġilgili": 1055,
      "ĠbeÄŁ": 1056,
      "Ġsat": 1057,
      "lat": 1058,
      "ia": 1059,
      "ĠbÃ¶": 1060,
      "''": 1061,
      "leriniz": 1062,
      "pan": 1063,
      "Ġbek": 1064,
      "Ġbilgil": 1065,
      "ster": 1066,
      "odu": 1067,
      "ĠDesenli": 1068,
      "Ġtarih": 1069,
      "Ġsonlan": 1070,
      "ici": 1071,
      "Ġneden": 1072,
      "Ġteslimat": 1073,
      "aÄŁÄ": 1074,
      "aÄŁÄ±": 1075,
      "Ġhal": 1076,
      "Ġuzun": 1077,
      "Ġancak": 1078,
      "one": 1079,
      "Ġsay": 1080,
      "sÄ±nÄ±z": 1081,
      "ĠgÃ¶re": 1082,
      "ĠhoÅŁ": 1083,
      "Ġ??": 1084,
      "60": 1085,
      "Ġbana": 1086,
      "eceÄŁiniz": 1087,
      "12": 1088,
      "Ġhemen": 1089,
      "Ġsevin": 1090,
      "com": 1091,
      "ĠgÃ¶z": 1092,
      "kontrol": 1093,
      "mez": 1094,
      "adÄ±n": 1095,
      "Ġsaat": 1096,
      "Ä±nÄ±n": 1097,
      "erli": 1098,
      "las": 1099,
      "eg": 1100,
      "we": 1101,
      "Ġfirma": 1102,
      "40": 1103,
      "Ġtaleb": 1104,
      "upon": 1105,
      "ĠolmamÄ±": 1106,
      "ĠteÅŁekkÃ¼rler": 1107,
      "celikle": 1108,
      "Ġarka": 1109,
      "sipariÅŁ": 1110,
      "sin": 1111,
      "000": 1112,
      "Ġsizin": 1113,
      "ĠgÃ¼nÃ¼": 1114,
      "Ġhat": 1115,
      "Ġdestek": 1116,
      "ĠgerÃ§": 1117,
      "leme": 1118,
      "Ġveya": 1119,
      "tÄ±ÄŁ": 1120,
      "dÄ±ÄŁÄ": 1121,
      "dÄ±ÄŁÄ±": 1122,
      "ĠÃ¶nce": 1123,
      "Ġtav": 1124,
      "eme": 1125,
      "ten": 1126,
      "Ġyol": 1127,
      "dÄ±ÄŁÄ±m": 1128,
      "abÄ": 1129,
      "abÄ±": 1130,
      "ĠbÃ¼yÃ¼k": 1131,
      "atur": 1132,
      "bir": 1133,
      "ĠdÃ¼ÅŁ": 1134,
      "EN": 1135,
      "ve": 1136,
      "tp": 1137,
      "ĠSiyah": 1138,
      "ĠoluÅŁtur": 1139,
      "//": 1140,
      "AN": 1141,
      "ph": 1142,
      "eki": 1143,
      "Ġsevinirim": 1144,
      "div": 1145,
      "ĠkÄ±lÄ±f": 1146,
      "://": 1147,
      "Ġ%": 1148,
      "sek": 1149,
      "ĠiletiÅŁ": 1150,
      "Ġbelirt": 1151,
      "ĠRen": 1152,
      "Ġkolay": 1153,
      "aya": 1154,
      "Ãĩok": 1155,
      "Ġkart": 1156,
      "15": 1157,
      "ri": 1158,
      "Ġgir": 1159,
      "ĠTasarÄ±m": 1160,
      "ĠKor": 1161,
      "ĠseÃ§": 1162,
      "rÄ": 1163,
      "rÄ±": 1164,
      "siye": 1165,
      "Ġalt": 1166,
      "=\"": 1167,
      "cut": 1168,
      "Ġkuma": 1169,
      "ĠyÃ¼z": 1170,
      "Ġsist": 1171,
      "ĠbaÄŁ": 1172,
      "Ġbeklem": 1173,
      "ĠettiÄŁ": 1174,
      "leÅŁ": 1175,
      "dÃ¼": 1176,
      "Ġbeklet": 1177,
      "Ġsadece": 1178,
      "mÄ±z": 1179,
      "ĠgÃ¶rÃ¼ÅŁmemiz": 1180,
      "ĠAr": 1181,
      "ĠÃľ": 1182,
      "Ġmark": 1183,
      "Ġas": 1184,
      "Ġbiraz": 1185,
      "dik": 1186,
      "19": 1187,
      "±lan": 1188,
      "Ä±lan": 1189,
      "aden": 1190,
      "Ġmev": 1191,
      "Ġbenim": 1192,
      "ĠAl": 1193,
      "edarik": 1194,
      "ĠhÄ±zlÄ±": 1195,
      "mu": 1196,
      "dum": 1197,
      "ĠKapak": 1198,
      "unc": 1199,
      "dÄ±ÄŁÄ±nda": 1200,
      "Merhabalar": 1201,
      "ektir": 1202,
      "Ġcok": 1203,
      "lÄ±ÅŁ": 1204,
      "sanÄ±z": 1205,
      "Ġkupon": 1206,
      "Ġmodel": 1207,
      "Ġmail": 1208,
      "Ã¼Ã§Ã¼k": 1209,
      "mal": 1210,
      "Ġolmas": 1211,
      "16": 1212,
      "Ġonay": 1213,
      "ucu": 1214,
      "Ġser": 1215,
      "18": 1216,
      "malar": 1217,
      "25": 1218,
      "ĠX": 1219,
      "http": 1220,
      "ĠkarÅŁÄ±": 1221,
      "Ġes": 1222,
      "Ġ</": 1223,
      "ĠZ": 1224,
      "Ġmemnuniyetle": 1225,
      "eu": 1226,
      "fil": 1227,
      "ĠhiÃ§": 1228,
      "LÄ°": 1229,
      "Ġmal": 1230,
      "eye": 1231,
      "sik": 1232,
      "ans": 1233,
      "kek": 1234,
      "Ġvarsa": 1235,
      "ĠalÄ±ÅŁ": 1236,
      "Ġsizi": 1237,
      "tabi": 1238,
      "veriÅŁ": 1239,
      "dÄ±k": 1240,
      "eyi": 1241,
      "larak": 1242,
      "inize": 1243,
      "±la": 1244,
      "Ä±la": 1245,
      "oss": 1246,
      "Ġem": 1247,
      "Ġolabil": 1248,
      "iyle": 1249,
      "lÄ±yorum": 1250,
      "ĠAn": 1251,
      "Ġaks": 1252,
      "Ġedilm": 1253,
      "cen": 1254,
      "ĠÃ¶de": 1255,
      "usu": 1256,
      "Ġis": 1257,
      "yon": 1258,
      "mm": 1259,
      "enden": 1260,
      "be": 1261,
      "erimiz": 1262,
      "ley": 1263,
      "ilmiÅŁtir": 1264,
      "elik": 1265,
      "ĠolduÄŁu": 1266,
      "Ġistem": 1267,
      "ĠtÃ¼m": 1268,
      "Ġurun": 1269,
      "Ġyet": 1270,
      "Ġkil": 1271,
      "Ġmevcut": 1272,
      "Ġsan": 1273,
      "liÄŁi": 1274,
      "iÄŁer": 1275,
      "Ġter": 1276,
      "lere": 1277,
      "ĠdÃ¶nÃ¼ÅŁ": 1278,
      "ayan": 1279,
      "ĠJ": 1280,
      "ĠaldÄ±ÄŁÄ±nÄ±z": 1281,
      "Ġyeni": 1282,
      "merhabalar": 1283,
      "Ġat": 1284,
      "Ġdiye": 1285,
      "Ġhar": 1286,
      "asÄ±nda": 1287,
      "Ġbilg": 1288,
      "size": 1289,
      "ĠKal": 1290,
      "ĠÃ¼zerinden": 1291,
      "±y": 1292,
      "Ä±y": 1293,
      "ĠÃ¶lÃ§": 1294,
      "ĠBoy": 1295,
      "Ġtavsiye": 1296,
      "Ġyak": 1297,
      "amlar": 1298,
      "ocuk": 1299,
      "70": 1300,
      "omi": 1301,
      "luk": 1302,
      "esini": 1303,
      "aliy": 1304,
      "ĠPro": 1305,
      "Ġu": 1306,
      "tral": 1307,
      "Ġsistem": 1308,
      "ĠgÃ¶ster": 1309,
      "acaÄŁÄ±m": 1310,
      "></": 1311,
      "ĠmaÄŁ": 1312,
      "chat": 1313,
      "uncs": 1314,
      "central": 1315,
      "aliyuncs": 1316,
      "files": 1317,
      "ĠÃ§Ã¶zÃ¼m": 1318,
      "Ġtedarik": 1319,
      "Ġhed": 1320,
      "ĠgÃ¶rsel": 1321,
      "ig": 1322,
      "Ġaktar": 1323,
      "Ġ12": 1324,
      "ĠalÄ±ÅŁveriÅŁ": 1325,
      "lak": 1326,
      "Ġkat": 1327,
      "ĠsatÄ±cÄ±": 1328,
      "ĠKol": 1329,
      "muÅŁ": 1330,
      ".??": 1331,
      "Ġricam": 1332,
      "Ġbur": 1333,
      "hemen": 1334,
      "iaomi": 1335,
      "ĠkÄ±r": 1336,
      "lÃ¼tfen": 1337,
      "Ġbenden": 1338,
      "angi": 1339,
      "arika": 1340,
      "iyoruz": 1341,
      "ĠkaÃ§": 1342,
      "esinde": 1343,
      "Ġiadesi": 1344,
      "ĠkalÄ±n": 1345,
      "Ġgerekli": 1346,
      "ite": 1347,
      "daki": 1348,
      "imag": 1349,
      "cm": 1350,
      "ĠkÃ¼Ã§Ã¼k": 1351,
      "80": 1352,
      "images": 1353,
      "ĠgÃ¼": 1354,
      "tÄ±k": 1355,
      "ĠÃ¶ÄŁ": 1356,
      "Ġ15": 1357,
      "Ġhaf": 1358,
      "adeniz": 1359,
      "ĠakÅŁ": 1360,
      "ĠÃ¼st": 1361,
      "suz": 1362,
      "re": 1363,
      "13": 1364,
      "lerde": 1365,
      "men": 1366,
      "ĠÃ§Ä±kacak": 1367,
      "ne": 1368,
      "Ġindirim": 1369,
      "endi": 1370,
      "uÅŁma": 1371,
      "14": 1372,
      "ĠTasarÄ±mlÄ±": 1373,
      "phone": 1374,
      "Ã¼p": 1375,
      "Ġdiliyorum": 1376,
      "Ġfaz": 1377,
      "Ġx": 1378,
      "Ġhizmeti": 1379,
      "17": 1380,
      "ĠmÃ¼ÅŁt": 1381,
      "ĠsaÄŁlar": 1382,
      "±ma": 1383,
      "Ä±ma": 1384,
      "ĠNot": 1385,
      "Ġuygul": 1386,
      "Ġhakk": 1387,
      "utu": 1388,
      "yar": 1389,
      "mÄ±ÅŁtÄ±r": 1390,
      "ayÄ": 1391,
      "ayÄ±": 1392,
      "lerimiz": 1393,
      "Ġfatur": 1394,
      "Ġgiy": 1395,
      "ebileceÄŁiniz": 1396,
      "abilm": 1397,
      "karg": 1398,
      "ĠkatÄ±": 1399,
      "td": 1400,
      "ĠsÃ¼rede": 1401,
      "yan": 1402,
      "ua": 1403,
      "likle": 1404,
      "ĠkullanÄ±l": 1405,
      "ĠaÅŁ": 1406,
      "madan": 1407,
      "ĠgÃ¶rÃ¼ÅŁmemizi": 1408,
      "madÄ±": 1409,
      "ĠiletiÅŁime": 1410,
      "umu": 1411,
      "ĠsaÄŁla": 1412,
      "Ġce": 1413,
      "ilen": 1414,
      "zel": 1415,
      "ekten": 1416,
      "par": 1417,
      "ĠHd": 1418,
      "ĠdeÄŁerli": 1419,
      "Ġrengi": 1420,
      "99": 1421,
      "ĠâĢ": 1422,
      "larda": 1423,
      "Ġverdim": 1424,
      "Ġkodu": 1425,
      "arj": 1426,
      "ĠdoÄŁr": 1427,
      "bekl": 1428,
      "ĠW": 1429,
      "Ä±klÄ±": 1430,
      "Ġgec": 1431,
      "ebilirseniz": 1432,
      "aj": 1433,
      "uv": 1434,
      "ĠyÄ±l": 1435,
      "Ġic": 1436,
      "Ġmer": 1437,
      "Ġsol": 1438,
      "Ġeder": 1439,
      "Ġkol": 1440,
      "tes": 1441,
      "Ã¶y": 1442,
      "ĠalmÄ±ÅŁ": 1443,
      "ÃľN": 1444,
      "Ġettim": 1445,
      "ĠolduÄŁunuz": 1446,
      "Ġgayet": 1447,
      "Ġ+": 1448,
      "ĠolabileceÄŁim": 1449,
      "ĠyanlÄ±ÅŁ": 1450,
      "100": 1451,
      "ĠUz": 1452,
      "ise": 1453,
      "Xiaomi": 1454,
      "Ġverm": 1455,
      "22": 1456,
      "Ġbekletebilir": 1457,
      "Ġhaz": 1458,
      "ĠRenk": 1459,
      "Ä±lacak": 1460,
      "eket": 1461,
      "ada": 1462,
      "ĠkatÄ±larak": 1463,
      "ĠdeÄŁerlendirebileceÄŁiniz": 1464,
      "Ġeksik": 1465,
      "Ġhem": 1466,
      "Ġiadeniz": 1467,
      "ort": 1468,
      "Ġhala": 1469,
      "uawe": 1470,
      "Ġer": 1471,
      "Ġsah": 1472,
      "manÄ±z": 1473,
      "uawei": 1474,
      "ĠSt": 1475,
      "ĠÅŁÄ±k": 1476,
      "Ġankete": 1477,
      "ĠdeÄŁerlendirebilirseniz": 1478,
      "ihaz": 1479,
      "Ġstyle": 1480,
      "ÄŁÃ¼": 1481,
      "rem": 1482,
      "layÄ±ÅŁ": 1483,
      "Ġdolay": 1484,
      "Ġkod": 1485,
      "ĠÃ¶ÄŁren": 1486,
      "ĠaÄŁ": 1487,
      "Ġetmek": 1488,
      "ĠBu": 1489,
      "og": 1490,
      "Ġfazla": 1491,
      "uÃ§": 1492,
      "ĠsÄ±k": 1493,
      "ĠVe": 1494,
      "ĠgÃ¼ncel": 1495,
      "malÄ±": 1496,
      "aklÄ±": 1497,
      "lÄ±ÄŁÄ": 1498,
      "lÄ±ÄŁÄ±": 1499,
      "ĠkÃ¶": 1500,
      "Ġdol": 1501,
      "unun": 1502,
      "lus": 1503,
      "dÃ¼r": 1504,
      ".;": 1505,
      "ĠEl": 1506,
      "ci": 1507,
      "ĠlÃ¼tfen": 1508,
      "Ġgelsin": 1509,
      "Ã§i": 1510,
      "san": 1511,
      "ĠgerÃ§ek": 1512,
      "eyaz": 1513,
      "aten": 1514,
      "Ġhangi": 1515,
      "uan": 1516,
      "esef": 1517,
      "Ġmak": 1518,
      "Ġmalz": 1519,
      "met": 1520,
      "Ġres": 1521,
      "mÄ±zÄ": 1522,
      "mÄ±zÄ±": 1523,
      "KadÄ±n": 1524,
      "mel": 1525,
      "ĠyÃ¶n": 1526,
      "Ġdileriz": 1527,
      "likte": 1528,
      "Ä±nÄ±zÄ": 1529,
      "Ä±nÄ±zÄ±": 1530,
      "derim": 1531,
      "Ġelime": 1532,
      "Ã¼t": 1533,
      "erseniz": 1534,
      "Ä±lÄ±r": 1535,
      "ĠgÃ¶rÃ¼ntÃ¼": 1536,
      "±cÄ±": 1537,
      "Ä±cÄ±": 1538,
      "Ġ200": 1539,
      "iyon": 1540,
      "jp": 1541,
      "let": 1542,
      "Ġdev": 1543,
      "itap": 1544,
      "Ä°N": 1545,
      "umuÅŁ": 1546,
      "iparis": 1547,
      "trendyol": 1548,
      "ablo": 1549,
      "manÄ±zÄ±": 1550,
      "ĠTak": 1551,
      "Ġ30": 1552,
      "Ġince": 1553,
      "akkabÄ±": 1554,
      "90": 1555,
      "acaktÄ±r": 1556,
      "ĠtarafÄ±ndan": 1557,
      ";\"": 1558,
      "for": 1559,
      "ĠbeÄŁendim": 1560,
      "Ġalan": 1561,
      "inal": 1562,
      "Ä±yoruz": 1563,
      "Ã¼rk": 1564,
      "Ġpro": 1565,
      "Ġoluyor": 1566,
      "Ġ\"": 1567,
      "eff": 1568,
      "Ġpay": 1569,
      "ĠUzun": 1570,
      "EL": 1571,
      "inizde": 1572,
      "Ġgelmedi": 1573,
      "asp": 1574,
      "Ġdik": 1575,
      "Ġkam": 1576,
      "âĢĻ": 1577,
      "ceÄŁ": 1578,
      "Ġder": 1579,
      "eyim": 1580,
      "una": 1581,
      "effaf": 1582,
      "aklÄ±k": 1583,
      "ĠakÅŁamlar": 1584,
      "iyi": 1585,
      "Huawei": 1586,
      "ĠdolayÄ": 1587,
      "ĠdolayÄ±": 1588,
      "AL": 1589,
      "pp": 1590,
      "sem": 1591,
      "ge": 1592,
      "ecektir": 1593,
      "Ġolsun": 1594,
      "ĠayrÄ±": 1595,
      "ĠsÄ": 1596,
      "ĠsÄ±": 1597,
      "ĠgÃ¼v": 1598,
      "rkek": 1599,
      "ĠÃ¼rÃ¼nÃ¼nÃ¼z": 1600,
      "Ġtop": 1601,
      "eh": 1602,
      "lara": 1603,
      "ĠÃ§ek": 1604,
      "Ġ50": 1605,
      "muyor": 1606,
      "Ġgerekiyor": 1607,
      "imdi": 1608,
      "Ġzar": 1609,
      "iÄŁi": 1610,
      "Ġiki": 1611,
      "Ġbirlikte": 1612,
      "mÄ±yor": 1613,
      "Ġgelen": 1614,
      "ĠbaÅŁka": 1615,
      "ekkur": 1616,
      "iki": 1617,
      "IN": 1618,
      "erhangi": 1619,
      "ĠÃĸzel": 1620,
      "ij": 1621,
      "Ġev": 1622,
      "Ġseb": 1623,
      "Ġveril": 1624,
      "sh": 1625,
      "undan": 1626,
      "ĠeÄŁ": 1627,
      "ĠkÄ±sm": 1628,
      "Ġot": 1629,
      "Ġtalep": 1630,
      "Ġgen": 1631,
      "ĠgÃ¶zÃ¼k": 1632,
      "ĠAdet": 1633,
      "45": 1634,
      "Ãĸ": 1635,
      "ĠgÃ¶nderim": 1636,
      "Ġsiyah": 1637,
      "urlu": 1638,
      "ĠsÃ¶y": 1639,
      "yardÄ±mcÄ±": 1640,
      "ebek": 1641,
      "asÄ±nÄ±": 1642,
      "ob": 1643,
      "Ġdet": 1644,
      "ĠKÄ±r": 1645,
      "Ġhediye": 1646,
      "mesi": 1647,
      "ĠEk": 1648,
      "ĠÃ¼retilmiÅŁtir": 1649,
      "ĠpaylaÅŁ": 1650,
      "AT": 1651,
      "...": 1652,
      "Ġnumara": 1653,
      "ĠdiÄŁer": 1654,
      "35": 1655,
      "Ġtamam": 1656,
      "ĠPar": 1657,
      "Ġbildirim": 1658,
      "ĠSeti": 1659,
      "AK": 1660,
      "ĠmÃ¼": 1661,
      "Ġdurumda": 1662,
      "ekli": 1663,
      "Ġmes": 1664,
      "lerin": 1665,
      "ĠsonlandÄ±ÄŁÄ±nda": 1666,
      "Ġalabilirsiniz": 1667,
      "amuk": 1668,
      "Ġilk": 1669,
      "ĠnumarasÄ±": 1670,
      "leÅŁtir": 1671,
      "tu": 1672,
      "anÄ±n": 1673,
      "AS": 1674,
      "yal": 1675,
      "ĠdÄ±ÅŁ": 1676,
      "ĠbaÅŁlat": 1677,
      "ĠdoÄŁru": 1678,
      "uyucu": 1679,
      "ĠyÄ±k": 1680,
      "ĠkumaÅŁ": 1681,
      "kÃ¼": 1682,
      "ĠÃ¼zerinde": 1683,
      "ĠbÃ¶yle": 1684,
      "Äŀ": 1685,
      "gel": 1686,
      "ing": 1687,
      "75": 1688,
      "ormal": 1689,
      "Ġ100": 1690,
      "inizin": 1691,
      "ĠbaÄŁlan": 1692,
      "Ġdevam": 1693,
      "Ġsu": 1694,
      "ĠSay": 1695,
      "fa": 1696,
      "iyorsunuz": 1697,
      "ET": 1698,
      "Ġbask": 1699,
      "Ã¼nde": 1700,
      "ayÄ±r": 1701,
      "ĠbÃ¶l": 1702,
      "</": 1703,
      "sÄ": 1704,
      "sÄ±": 1705,
      "ĠÃ¼rÃ¼nÃ¼m": 1706,
      "ĠolmasÄ±": 1707,
      "ĠhazÄ±r": 1708,
      "ĠhakkÄ±nda": 1709,
      "orum": 1710,
      "Ġdok": 1711,
      "arlÄ±": 1712,
      "embe": 1713,
      "Ġ#": 1714,
      "ĠtanÄ±m": 1715,
      "ĠyaÅŁan": 1716,
      "ĠkullanÄ±m": 1717,
      "uzel": 1718,
      "36": 1719,
      "Ġedebilirsiniz": 1720,
      "ĠaÃ§Ä±k": 1721,
      "----": 1722,
      "ĠCam": 1723,
      "Ġaz": 1724,
      "ÄŁu": 1725,
      "daÅŁ": 1726,
      "OR": 1727,
      "ĠgÃ¶nderil": 1728,
      "RÃľN": 1729,
      "Ġincel": 1730,
      "Ġkesin": 1731,
      "Ġyat": 1732,
      "mem": 1733,
      "Ġgr": 1734,
      "umarÄ±m": 1735,
      "yla": 1736,
      "ĠedeceÄŁ": 1737,
      "Ġsahip": 1738,
      "Ġoy": 1739,
      "larÄ±n": 1740,
      "Ġbile": 1741,
      "aban": 1742,
      "ĠÃ¶ncelikle": 1743,
      "ĠolmasÄ±n": 1744,
      "lastik": 1745,
      "78": 1746,
      "Ġdar": 1747,
      "ĠÃ¶lÃ§Ã¼": 1748,
      "Ġicin": 1749,
      "24": 1750,
      "sizden": 1751,
      "ĠolduÄŁunu": 1752,
      "Ġe": 1753,
      "Ġ/></": 1754,
      "ĠfirmasÄ±": 1755,
      "lÃ¼k": 1756,
      "ayÄ±m": 1757,
      "Ġalma": 1758,
      "Ã¼mÃ¼ÅŁ": 1759,
      "ĠettiÄŁimde": 1760,
      "Ġbize": 1761,
      "Ġkaz": 1762,
      "Ġiy": 1763,
      "Ġharika": 1764,
      "amÄ±yorum": 1765,
      "larÄ±mÄ±z": 1766,
      "jpg": 1767,
      "Ġedildi": 1768,
      ";\">": 1769,
      "Iphone": 1770,
      "Ġherhangi": 1771,
      "Ġmalzem": 1772,
      "px": 1773,
      "Ġnedir": 1774,
      "ĠPlus": 1775,
      "ayanÄ±klÄ±": 1776,
      "Ġkoy": 1777,
      "LER": 1778,
      "ĠkÄ±smÄ±": 1779,
      "ard": 1780,
      "Ġyani": 1781,
      "ilmektedir": 1782,
      "lerini": 1783,
      "ĠtaÅŁ": 1784,
      "Ġtutar": 1785,
      "Ġdetay": 1786,
      "ediÄŁim": 1787,
      "uyu": 1788,
      "of": 1789,
      "Ä°Z": 1790,
      "ĠÃ¶deme": 1791,
      "layÄ±ÅŁÄ±nÄ±z": 1792,
      "Ġla": 1793,
      "Ġyoksa": 1794,
      "oÄŁun": 1795,
      "Ġbas": 1796,
      "ĠModel": 1797,
      "Ġsiparis": 1798,
      "EK": 1799,
      "ikayet": 1800,
      "gim": 1801,
      "ĠNote": 1802,
      "ĠdÃ¼ÅŁÃ¼n": 1803,
      "Ġno": 1804,
      "cu": 1805,
      "ika": 1806,
      "meniz": 1807,
      "Ġzaten": 1808,
      "mer": 1809,
      "ĠBil": 1810,
      "eÄŁi": 1811,
      "Ġ40": 1812,
      "ana": 1813,
      "ĠyÃ¼ksek": 1814,
      "Ã¼nÃ¼z": 1815,
      "Ġalmak": 1816,
      "Ġmarket": 1817,
      "ĠgeÃ§ir": 1818,
      "Ġkoruma": 1819,
      "ĠSaÄŁ": 1820,
      "Ġbeyaz": 1821,
      "26": 1822,
      "Âł": 1823,
      "Ġ16": 1824,
      "ĠkayÄ±t": 1825,
      "aspas": 1826,
      "oj": 1827,
      "ĠsonuÃ§": 1828,
      "ĠsÃ¼rec": 1829,
      "amb": 1830,
      "ĠÃ¼y": 1831,
      "Ġkonuda": 1832,
      "kan": 1833,
      "sim": 1834,
      "Ġsizlerden": 1835,
      "Ġ11": 1836,
      "Ġduruyor": 1837,
      "span": 1838,
      "ĠgÃ¶rÃ¼nÃ¼yor": 1839,
      "Ã¶ncelikle": 1840,
      "Ġner": 1841,
      "Ġpara": 1842,
      "44": 1843,
      "Ġdir": 1844,
      "oÄŁraf": 1845,
      "ĠÅŁey": 1846,
      "200": 1847,
      "Ġkampan": 1848,
      "ĠSer": 1849,
      "Ġkok": 1850,
      "Ġgor": 1851,
      "Ġgar": 1852,
      "peki": 1853,
      "adan": 1854,
      "ĠAk": 1855,
      "emek": 1856,
      "ĠedeceÄŁim": 1857,
      "ĠdeÄŁiÅŁik": 1858,
      "55": 1859,
      "Ġzor": 1860,
      "Ġhareket": 1861,
      "alesef": 1862,
      "lerim": 1863,
      "Ġ*": 1864,
      "38": 1865,
      "Ä±lmÄ±ÅŁ": 1866,
      "lerinizi": 1867,
      "edmi": 1868,
      "Ġcev": 1869,
      "ĠBeyaz": 1870,
      "avi": 1871,
      "ezaket": 1872,
      "Ġ60": 1873,
      "kargo": 1874,
      "Ġederiz": 1875,
      "ĠÄ°Ã§": 1876,
      "ĠbugÃ¼n": 1877,
      "ĠdeÄŁildir": 1878,
      "konuÅŁma": 1879,
      "Ġtakip": 1880,
      "ĠTr": 1881,
      "Ġtasar": 1882,
      "Ġkargol": 1883,
      "Ġcihaz": 1884,
      "otoÄŁraf": 1885,
      "iyatÄ±": 1886,
      "Ġtemiz": 1887,
      "bor": 1888,
      "deki": 1889,
      "ĠmaÄŁaz": 1890,
      "ĠnumaranÄ±zÄ±": 1891,
      "cih": 1892,
      "ĠKar": 1893,
      "ift": 1894,
      "matik": 1895,
      "uvar": 1896,
      "Ġbeni": 1897,
      "ĠsipariÅŁim": 1898,
      "masÄ±nÄ±": 1899,
      "Ġemin": 1900,
      "ica": 1901,
      "bise": 1902,
      "28": 1903,
      "Ġguzel": 1904,
      "diler": 1905,
      "to": 1906,
      "maya": 1907,
      "olu": 1908,
      "sÄ±z": 1909,
      "ha": 1910,
      "ĠyumuÅŁ": 1911,
      "Ġdak": 1912,
      "Ġbekliyorum": 1913,
      "Ġkab": 1914,
      "Ġtane": 1915,
      "ĠPaspas": 1916,
      "kÃ¼n": 1917,
      "Ġbizim": 1918,
      "tand": 1919,
      "ÅŁap": 1920,
      "Ġgi": 1921,
      "ĠarkadaÅŁ": 1922,
      "OL": 1923,
      "Ġekran": 1924,
      "34": 1925,
      "Ġbilgiler": 1926,
      "Ġ24": 1927,
      "alan": 1928,
      "98": 1929,
      "Ġsayesinde": 1930,
      "ĠumarÄ±m": 1931,
      "±c": 1932,
      "Ä±c": 1933,
      "Ġcan": 1934,
      "ĠSp": 1935,
      "Ġstok": 1936,
      "Ġsonr": 1937,
      "lÃ¼yorum": 1938,
      "ĠsonlandÄ±r": 1939,
      "tabii": 1940,
      "etal": 1941,
      "Ä±ÅŁlÄ±": 1942,
      "dÃ¼ÄŁÃ¼": 1943,
      "Ġsolid": 1944,
      "border": 1945,
      "shirt": 1946,
      "nek": 1947,
      "ON": 1948,
      "ulu": 1949,
      "kat": 1950,
      "ezaketiniz": 1951,
      "Ã¼mkÃ¼n": 1952,
      "ĠmÃ¼ÅŁterimiz": 1953,
      "Ġbay": 1954,
      "ĠdayanÄ±klÄ±": 1955,
      "hÅŁap": 1956,
      "ĠgÃ¼ven": 1957,
      "umsuz": 1958,
      "27": 1959,
      "Ġreng": 1960,
      "han": 1961,
      "Ġonaylan": 1962,
      "Ġkendi": 1963,
      "Ã¼yorum": 1964,
      "Ġhesap": 1965,
      "Ġdilerseniz": 1966,
      "ont": 1967,
      "ĠkumaÅŁÄ±": 1968,
      "ĠÃ¶ÄŁrenebilir": 1969,
      "Ġ14": 1970,
      "emiyorum": 1971,
      "Ġtercih": 1972,
      "Ġekl": 1973,
      "emli": 1974,
      "Ġw": 1975,
      "teÅŁekkÃ¼rler": 1976,
      "Ġbilgilendir": 1977,
      "Ġgelir": 1978,
      "Ä±lÄ±yor": 1979,
      "ĠsatÄ±ÅŁ": 1980,
      "Ġgeliyor": 1981,
      "Ġnot": 1982,
      "ĠyoÄŁun": 1983,
      "ĠBir": 1984,
      "ĠaÄŁÄ±r": 1985,
      "ÅŁlem": 1986,
      "Ġyorum": 1987,
      "ĠÅŁikayet": 1988,
      "ĠKoruyucu": 1989,
      "LI": 1990,
      "95": 1991,
      "ĠiÅŁlemi": 1992,
      "Ä±sÄ±nÄ±z": 1993,
      "Ä°R": 1994,
      "AM": 1995,
      "diÄŁi": 1996,
      "ĠkalÄ±p": 1997,
      "uyla": 1998,
      "Ġ/>": 1999,
      "ĠâĢ¢": 2000,
      "Ġkullanabilirsiniz": 2001,
      "'d": 2002,
      "Ġkend": 2003,
      "Ġkalitesi": 2004,
      "imli": 2005,
      "Ġhizmet": 2006,
      "kili": 2007,
      "Ġhas": 2008,
      "imize": 2009,
      "ĠalmÄ±ÅŁtÄ±m": 2010,
      "Ġolup": 2011,
      "ĠsaÄŁlam": 2012,
      "Ġkilo": 2013,
      "df": 2014,
      "Ġhav": 2015,
      "ru": 2016,
      "ekte": 2017,
      "Ġgun": 2018,
      "Ġsun": 2019,
      "endiÅŁ": 2020,
      "ĠKÄ±rmÄ±zÄ±": 2021,
      "Ġ25": 2022,
      "lardan": 2023,
      "33": 2024,
      "Ġkayn": 2025,
      "ĠÅŁeffaf": 2026,
      "ĠeÄŁer": 2027,
      "emmel": 2028,
      "dÄ±ÄŁÄ±nÄ±": 2029,
      "ĠyanÄ±t": 2030,
      "mayÄ±n": 2031,
      "sk": 2032,
      "ayÄ±n": 2033,
      "ĠgÃ¶rÃ¼ntÃ¼lÃ¼yorum": 2034,
      "Ġtalebinizi": 2035,
      "son": 2036,
      "ĠulaÅŁtÄ±": 2037,
      "Ġgon": 2038,
      "ES": 2039,
      "Ġkapat": 2040,
      "ĠkiÅŁ": 2041,
      "Ġolduk": 2042,
      "gun": 2043,
      "Ġsilikon": 2044,
      "Ġsoy": 2045,
      "Ġbol": 2046,
      "ĠsaÃ§": 2047,
      "Ġdurumu": 2048,
      "Ġyans": 2049,
      "46": 2050,
      "dÄ±ktan": 2051,
      "alarÄ": 2052,
      "alarÄ±": 2053,
      "Ã¼ksek": 2054,
      "Ġyas": 2055,
      "Ġmm": 2056,
      "gÄ": 2057,
      "gÄ±": 2058,
      "ilmem": 2059,
      "ĠÃľRÃľN": 2060,
      "tek": 2061,
      "eyin": 2062,
      "ĠMat": 2063,
      "ĠÅŁuan": 2064,
      "bÄ": 2065,
      "eÅŁil": 2066,
      "bÄ±": 2067,
      "Bu": 2068,
      "ĠhesabÄ±nÄ±za": 2069,
      "Ġbit": 2070,
      "Ġmas": 2071,
      "ĠRedmi": 2072,
      "inc": 2073,
      "ĠyapÄ±lacak": 2074,
      "mis": 2075,
      "ĠsipariÅŁiniz": 2076,
      "Ġbank": 2077,
      "diÄŁiniz": 2078,
      "jinal": 2079,
      "Ġiz": 2080,
      "anti": 2081,
      "ĠnasÄ±lsÄ±nÄ±z": 2082,
      "Ġok": 2083,
      "Ġkut": 2084,
      "mektedir": 2085,
      "Ġgecik": 2086,
      "Ġyapma": 2087,
      "ml": 2088,
      "Ġgit": 2089,
      "ĠsaÄŁlÄ±yorum": 2090,
      "ĠÃ§alÄ±ÅŁmalar": 2091,
      "ĠCm": 2092,
      "Ġli": 2093,
      "lerden": 2094,
      "Ġber": 2095,
      "Ġmesaj": 2096,
      "Ġbeklemenizi": 2097,
      "diÄŁim": 2098,
      "teslim": 2099,
      "ðŁ": 2100,
      "Ä±nÄ±zda": 2101,
      "48": 2102,
      "Ġtekn": 2103,
      "Ġkus": 2104,
      "ĠÃĸn": 2105,
      "likleri": 2106,
      "ĠGÃ¶": 2107,
      "Ġedelim": 2108,
      "Ä±mda": 2109,
      "rica": 2110,
      "Ġuyumlu": 2111,
      "erÃ§": 2112,
      "hal": 2113,
      "Ġolumsuz": 2114,
      "ĠÃ§Ä±kar": 2115,
      "siyon": 2116,
      "gÃ¶r": 2117,
      "enar": 2118,
      "Ġdakika": 2119,
      "Ġbildir": 2120,
      "Ren": 2121,
      "Ġim": 2122,
      "ĠÅŁub": 2123,
      "Ġ18": 2124,
      "ĠOr": 2125,
      "Ã¼kemmel": 2126,
      "ĠMi": 2127,
      "Ġdurumunda": 2128,
      "enÃ¼z": 2129,
      "Ġzamanda": 2130,
      "esine": 2131,
      "ng": 2132,
      "Ġnormal": 2133,
      "Ã¼nkÃ¼": 2134,
      "ĠmÃ¼mkÃ¼n": 2135,
      "dde": 2136,
      "ĠseÃ§en": 2137,
      "ub": 2138,
      "96": 2139,
      "ÄŁÄ": 2140,
      "ÄŁÄ±": 2141,
      "tamamdÄ±r": 2142,
      "DI": 2143,
      "ular": 2144,
      "ĠGÃ¶r": 2145,
      "tif": 2146,
      "dikleriniz": 2147,
      "ĠEkran": 2148,
      "Ġkesinlikle": 2149,
      "Ġetsem": 2150,
      "kin": 2151,
      "eyen": 2152,
      "Ġhep": 2153,
      "ĠgerÃ§ekten": 2154,
      "ladÄ±m": 2155,
      "ĠkÃ¶tÃ¼": 2156,
      "Ã§e": 2157,
      "Ġekip": 2158,
      "ĠÃĸlÃ§": 2159,
      "Ġalabilir": 2160,
      "Ġtem": 2161,
      "23": 2162,
      "ĠdeÄŁiÅŁtir": 2163,
      "Ġboyu": 2164,
      "Ġdes": 2165,
      "lk": 2166,
      "Ġkazan": 2167,
      "olon": 2168,
      "Ġcevap": 2169,
      "ax": 2170,
      "76": 2171,
      "saÄŁ": 2172,
      "ĠeÅŁ": 2173,
      "hayÄ±r": 2174,
      "ĠHav": 2175,
      "Ä°L": 2176,
      "ĠyazÄ±yor": 2177,
      "ĠMavi": 2178,
      "ĠYap": 2179,
      "Ġsab": 2180,
      "ĠyaptÄ±ÄŁ": 2181,
      "ina": 2182,
      "Ġgonder": 2183,
      "ĠÃ¼rÃ¼nleri": 2184,
      "ĠfiyatÄ±": 2185,
      "Ġduy": 2186,
      "ĠTop": 2187,
      "abiliyor": 2188,
      "and": 2189,
      "ĠaksaklÄ±k": 2190,
      "Ġdiyor": 2191,
      "ĠGÃ¼n": 2192,
      "endiÅŁeniz": 2193,
      "top": 2194,
      "ĠsÃ¼reÃ§": 2195,
      "Ġsoru": 2196,
      "Ġtarihi": 2197,
      "ĠdÃ¼z": 2198,
      "Galaxy": 2199,
      "ĠmaÄŁdur": 2200,
      "ĠbÄ±r": 2201,
      "Ã¼ÅŁter": 2202,
      "Ġfirmas": 2203,
      "misiniz": 2204,
      "ĠTablo": 2205,
      "menizi": 2206,
      "Ġ''": 2207,
      "Ġism": 2208,
      "epet": 2209,
      "kez": 2210,
      "ĠIn": 2211,
      "ĠayrÄ±ca": 2212,
      "ĠdoÄŁ": 2213,
      "ĠraÄŁ": 2214,
      "ĠAlt": 2215,
      "aber": 2216,
      "ĠsipariÅŁi": 2217,
      "lerinde": 2218,
      "sunda": 2219,
      "ent": 2220,
      "ĠraÄŁmen": 2221,
      "antolon": 2222,
      "isini": 2223,
      "Ġhay": 2224,
      "Ġsebeb": 2225,
      "ost": 2226,
      "sam": 2227,
      "ĠtakÄ±lan": 2228,
      "yok": 2229,
      "ron": 2230,
      "ilmek": 2231,
      "ĠTaÅŁ": 2232,
      "alÄ±k": 2233,
      "Ä±ndaki": 2234,
      "anta": 2235,
      "elere": 2236,
      "ĠYaz": 2237,
      "Ġkabul": 2238,
      "ĠkullanÄ±ÅŁlÄ±": 2239,
      "miyor": 2240,
      "acaÄŁÄ±z": 2241,
      "Ġalak": 2242,
      "ĠsatÄ±": 2243,
      "larÄ±nÄ±": 2244,
      "Ġkutu": 2245,
      "larÄ±m": 2246,
      "Ġlaz": 2247,
      "Ġbunu": 2248,
      "Ġtesekkur": 2249,
      "ĠiÅŁlemleri": 2250,
      "Ġdikkat": 2251,
      "Ġmusunuz": 2252,
      "dÄ±z": 2253,
      "ĠÅŀarj": 2254,
      "ĠTÃ¼rk": 2255,
      "Ġmadde": 2256,
      "ĠyazÄ±k": 2257,
      "gu": 2258,
      "ĠsÃ¼resi": 2259,
      "ĠDesen": 2260,
      "Ġone": 2261,
      "Ġbeklemeniz": 2262,
      "Ġuygulama": 2263,
      "Ã¼ler": 2264,
      "ow": 2265,
      "Ġ13": 2266,
      "gr": 2267,
      "Ġdegil": 2268,
      "Ġdem": 2269,
      "ĠDeri": 2270,
      "UN": 2271,
      "mamÄ±ÅŁ": 2272,
      "umaÅŁ": 2273,
      "ov": 2274,
      "ĠBel": 2275,
      "Ġolmaz": 2276,
      "lÄ±nÄ±za": 2277,
      "Ġbaz": 2278,
      "ook": 2279,
      "ĠÅŁimdi": 2280,
      "Ġserv": 2281,
      "Ġ:)": 2282,
      "Ġedilem": 2283,
      "ĠÃĩocuk": 2284,
      "Ġsil": 2285,
      "amÄ": 2286,
      "amÄ±": 2287,
      "etir": 2288,
      "bil": 2289,
      "eleri": 2290,
      "beklediÄŁiniz": 2291,
      "ilt": 2292,
      "yo": 2293,
      "Ġbilm": 2294,
      "Ġhafta": 2295,
      "ĠKullan": 2296,
      "ink": 2297,
      "amadÄ±m": 2298,
      "Ġyine": 2299,
      "ĠgerÃ§ekleÅŁtir": 2300,
      "ĠLite": 2301,
      "Ä±rÄ": 2302,
      "Ä±rÄ±": 2303,
      "ĠparÃ§": 2304,
      "oru": 2305,
      "asyon": 2306,
      "he": 2307,
      "Ä±ntÄ±": 2308,
      "UM": 2309,
      "Ġ&": 2310,
      "ĠfotoÄŁraf": 2311,
      "ľret": 2312,
      "aÄŁÄ±t": 2313,
      "Ġkul": 2314,
      "yaÅŁ": 2315,
      "Ġsevdikleriniz": 2316,
      "ĠsonuÃ§lan": 2317,
      "esin": 2318,
      "ĠhazÄ±rlan": 2319,
      "Ä±rÄ±m": 2320,
      "Ġtelefonun": 2321,
      "uya": 2322,
      "Ġuygundur": 2323,
      "Ġkg": 2324,
      "65": 2325,
      "Ġekib": 2326,
      "ĠPol": 2327,
      "ĠyÃ¼zden": 2328,
      "asi": 2329,
      "sizin": 2330,
      "Ġfatura": 2331,
      "Ä°M": 2332,
      "iv": 2333,
      "Ã¶k": 2334,
      "https": 2335,
      "Ġper": 2336,
      "Ġasla": 2337,
      "EM": 2338,
      "ĠTem": 2339,
      "cek": 2340,
      "Erkek": 2341,
      "atif": 2342,
      "enm": 2343,
      "Ä±rt": 2344,
      "Ġsepet": 2345,
      "ĠYÃ¼ksek": 2346,
      "ĠparÃ§a": 2347,
      "amp": 2348,
      "2021": 2349,
      "lerimi": 2350,
      "Ġacil": 2351,
      "ano": 2352,
      "Ġmaalesef": 2353,
      "Ä±ÅŁÄ±k": 2354,
      "osu": 2355,
      "Ġsizleri": 2356,
      "ĠaldÄ±ÄŁÄ±m": 2357,
      "Ġnok": 2358,
      "Ã¼rÃ¼": 2359,
      "su": 2360,
      "era": 2361,
      "Ġediyor": 2362,
      "Ġbilgisi": 2363,
      "iade": 2364,
      "lÄ±yor": 2365,
      "Ġgelecek": 2366,
      "askÄ": 2367,
      "askÄ±": 2368,
      "68": 2369,
      "Ã¼rlÃ¼": 2370,
      "ĠayakkabÄ±": 2371,
      "ĠKadÄ±n": 2372,
      "97": 2373,
      "sas": 2374,
      "Ġait": 2375,
      "ĠmÃ¼ÅŁteri": 2376,
      "ara": 2377,
      "ĠAÃ§": 2378,
      "bet": 2379,
      "lÄ±kla": 2380,
      "ide": 2381,
      "anlayÄ±ÅŁÄ±nÄ±z": 2382,
      "Ġbirim": 2383,
      "Ġiletebilir": 2384,
      "ile": 2385,
      "Ġhuz": 2386,
      "Ġgetir": 2387,
      "alÄ±m": 2388,
      "Ġayar": 2389,
      "Ġilettim": 2390,
      "ĠgeniÅŁ": 2391,
      "ĠgÃ¶zÃ¼kÃ¼yor": 2392,
      "Ġaras": 2393,
      "gan": 2394,
      "amaz": 2395,
      "hes": 2396,
      "nÄ±z": 2397,
      "ildi": 2398,
      "old": 2399,
      "ĠarasÄ±nda": 2400,
      "Ä±nÄ±zÄ±n": 2401,
      "Ã¼sÃ¼": 2402,
      "ere": 2403,
      "DE": 2404,
      "Ä±ÅŁtÄ±r": 2405,
      "Ġverir": 2406,
      "abiki": 2407,
      "weat": 2408,
      "onu": 2409,
      "Ġkan": 2410,
      "ĠhenÃ¼z": 2411,
      "AY": 2412,
      "ĠaÅŁama": 2413,
      "ĠLÃ¼": 2414,
      "Ġhalinde": 2415,
      "tra": 2416,
      "pt": 2417,
      "lah": 2418,
      "Ġmerkez": 2419,
      "ĠÃ§ocuk": 2420,
      "ĠmÃ¼ÅŁter": 2421,
      "duÄŁ": 2422,
      "AB": 2423,
      "ĠendiÅŁeniz": 2424,
      "Ġkr": 2425,
      "unuzu": 2426,
      "Ġtat": 2427,
      "LÄ°K": 2428,
      "cÃ¼zdan": 2429,
      "IZ": 2430,
      "bekliyorum": 2431,
      "Ġmarka": 2432,
      "Ã¼nÃ¼": 2433,
      "37": 2434,
      "ĠÃ¶nemli": 2435,
      "ata": 2436,
      "ize": 2437,
      "ĠKodu": 2438,
      "ĠTek": 2439,
      "ĠtÃ¼k": 2440,
      "blem": 2441,
      "abilirim": 2442,
      "Ġhak": 2443,
      "ĠdÃ¼n": 2444,
      "ĠEn": 2445,
      "ĠÃľret": 2446,
      "meden": 2447,
      "elim": 2448,
      "Ġkonuyu": 2449,
      "amÄ±ÅŁ": 2450,
      "her": 2451,
      "ĠPembe": 2452,
      "Ġonu": 2453,
      "Ġ19": 2454,
      "ĠKur": 2455,
      "mut": 2456,
      "adÄ±ÄŁÄ±nÄ±z": 2457,
      "ĠÃĩok": 2458,
      "makta": 2459,
      "pple": 2460,
      "Ġfiyata": 2461,
      "31": 2462,
      "Ġyeterli": 2463,
      "asa": 2464,
      "amÄ±z": 2465,
      "ĠPaket": 2466,
      "47": 2467,
      "ĠtedarikÃ§i": 2468,
      "edik": 2469,
      "Ġtah": 2470,
      "est": 2471,
      "ĠkÄ±rÄ±k": 2472,
      "Ġj": 2473,
      "ĠÃ¶ner": 2474,
      "29": 2475,
      "arÄ±m": 2476,
      "ĠBat": 2477,
      "nasÄ±l": 2478,
      "benim": 2479,
      "ektr": 2480,
      "ilmesi": 2481,
      "ĠtÄ±k": 2482,
      "Ġister": 2483,
      "ÄŁr": 2484,
      "Ġoto": 2485,
      "ĠkaynaklÄ±": 2486,
      "Ġkullanma": 2487,
      "ĠErkek": 2488,
      "Ġtoz": 2489,
      "ppo": 2490,
      "ĠbÃ¶lÃ¼m": 2491,
      "arb": 2492,
      "ĠYÃ¼z": 2493,
      "fak": 2494,
      "ĠvermiÅŁ": 2495,
      "otor": 2496,
      "ank": 2497,
      "Ġaldim": 2498,
      "Ġ38": 2499,
      "ĠgiriÅŁ": 2500,
      "Ġyal": 2501,
      "ardak": 2502,
      "iyo": 2503,
      "ĠHalÄ±": 2504,
      "ĠÅŁarj": 2505,
      "Ġtasarlan": 2506,
      "ĠHar": 2507,
      "ĠÃ¼zerine": 2508,
      "Ġ17": 2509,
      "vi": 2510,
      "ĠkayÄ±tlÄ±": 2511,
      "ick": 2512,
      "Ġkim": 2513,
      "ĠgÃ¶rÃ¼ndÃ¼ÄŁÃ¼": 2514,
      "ĠdetaylÄ±": 2515,
      "ou": 2516,
      "rak": 2517,
      "ĠkonuÅŁma": 2518,
      "ayn": 2519,
      "ĠtanÄ±mlan": 2520,
      "Ä±ldÄ±m": 2521,
      "ĠkartÄ±nÄ±za": 2522,
      "Ã¼ne": 2523,
      "Ġkalite": 2524,
      "ayd": 2525,
      "sizlere": 2526,
      "vert": 2527,
      "ĠÃ§iz": 2528,
      "Ġbulunan": 2529,
      "Ä±ndadÄ±r": 2530,
      "amÄ±yor": 2531,
      "Ġrengini": 2532,
      "ÄŁÃ¼s": 2533,
      "ulan": 2534,
      "Ġbelirtmek": 2535,
      "tandart": 2536,
      "ord": 2537,
      "Ġpaketleme": 2538,
      "Ã¼rÃ¼nÃ¼": 2539,
      "Ġyeniden": 2540,
      "ĠyardÄ±m": 2541,
      "Ġyada": 2542,
      "mÃ¼yor": 2543,
      "tÃ¼l": 2544,
      "ince": 2545,
      "ĠGri": 2546,
      "Ġbedeni": 2547,
      "Ġsahiptir": 2548,
      "ĠvardÄ±": 2549,
      "ĠmÃ¼kemmel": 2550,
      "Ġayak": 2551,
      "daha": 2552,
      "ĠbaÄŁlÄ±": 2553,
      "Ġsar": 2554,
      "parat": 2555,
      "ĠsatÄ±n": 2556,
      "Ġdeneyim": 2557,
      "Ġ36": 2558,
      "Ar": 2559,
      "RA": 2560,
      "ĠyÃ¶nlendir": 2561,
      "mayÄ": 2562,
      "mayÄ±": 2563,
      "ĠAyakkabÄ±": 2564,
      "sit": 2565,
      "emi": 2566,
      "Al": 2567,
      "ĠMak": 2568,
      "05": 2569,
      "amÄ±yoruz": 2570,
      "ĠBeden": 2571,
      "Ġmakin": 2572,
      "ĠÃ§Ã¼nkÃ¼": 2573,
      "ĠbÄ±rak": 2574,
      "esu": 2575,
      "na": 2576,
      "Ġhata": 2577,
      "85": 2578,
      "ba": 2579,
      "ED": 2580,
      "ĠdeÄŁiÅŁim": 2581,
      "astik": 2582,
      "Ġproblem": 2583,
      "ĠPlastik": 2584,
      "Ġsal": 2585,
      "Ġfirmaya": 2586,
      "Ã¼ÄŁ": 2587,
      "ĠÃ¼zgÃ¼n": 2588,
      "ĠGÃ¼mÃ¼ÅŁ": 2589,
      "Ä±ÅŁÄ": 2590,
      "Ä±ÅŁÄ±": 2591,
      "Ġhuzurlu": 2592,
      "usun": 2593,
      "pek": 2594,
      "Ġboz": 2595,
      "teryal": 2596,
      "upa": 2597,
      "32": 2598,
      "ĠolduÄŁundan": 2599,
      "kolay": 2600,
      "ĠolacaktÄ±r": 2601,
      "Ä±nÄ±f": 2602,
      "ĠArka": 2603,
      "Ġmateryal": 2604,
      "Ġml": 2605,
      "ĠÄ°yi": 2606,
      "lenmiÅŁ": 2607,
      "Ġkir": 2608,
      "yÄ": 2609,
      "yÄ±": 2610,
      "ĠSarÄ±": 2611,
      "AP": 2612,
      "aka": 2613,
      "ĠÃ§Ä±kart": 2614,
      "ust": 2615,
      "uyorum": 2616,
      "ĠKam": 2617,
      "argo": 2618,
      "ĠMax": 2619,
      "Ġotomatik": 2620,
      "Ġkah": 2621,
      "Ġred": 2622,
      "resi": 2623,
      "larÄ±nda": 2624,
      "gÃ¼": 2625,
      "39": 2626,
      "Ġanda": 2627,
      "Ġsp": 2628,
      "olun": 2629,
      "sini": 2630,
      "acÄ±k": 2631,
      "Ġpamuk": 2632,
      "can": 2633,
      "ke": 2634,
      "ger": 2635,
      "Ġoldum": 2636,
      "ydÄ±": 2637,
      "Ġhafif": 2638,
      "unuzun": 2639,
      "Ġevet": 2640,
      "ĠEs": 2641,
      "Ġyemek": 2642,
      "ĠsaÄŁlanacak": 2643,
      "Ġkampany": 2644,
      "Ġgarant": 2645,
      "ÄŁi": 2646,
      "ĠsÄ±r": 2647,
      "Ã¶rt": 2648,
      "gili": 2649,
      "eyif": 2650,
      "49": 2651,
      "ĠnumaralÄ±": 2652,
      "Ġdahil": 2653,
      "tÄ±ma": 2654,
      "ĠÃ¼rÃ¼nlerin": 2655,
      "Ġsayf": 2656,
      "remi": 2657,
      "Ã¼nden": 2658,
      "Ġhasar": 2659,
      "Ä±lmaz": 2660,
      "Ġolsa": 2661,
      "dilerseniz": 2662,
      "Ġhalde": 2663,
      "Ġpol": 2664,
      "???": 2665,
      "ĠSon": 2666,
      "Ġhassas": 2667,
      "--------": 2668,
      "ĠolmadÄ±": 2669,
      "ĠbankanÄ±z": 2670,
      "ĠyaÄŁ": 2671,
      "Ġtarihinde": 2672,
      "enin": 2673,
      "ĠTakÄ±m": 2674,
      "cok": 2675,
      "ĠkalÄ": 2676,
      "ĠkalÄ±": 2677,
      "ĠsÃ¶z": 2678,
      "Ġbiri": 2679,
      "ĠanlÄ±yorum": 2680,
      "net": 2681,
      "Ġbende": 2682,
      "uluk": 2683,
      "lÄ±ÄŁa": 2684,
      "ali": 2685,
      "ĠvarmÄ±": 2686,
      "Ġkitap": 2687,
      "alit": 2688,
      "ĠÃ¶yle": 2689,
      "iÅŁim": 2690,
      "ĠfÄ±r": 2691,
      "ĠsÄ±kÄ±ntÄ±": 2692,
      "ĠBas": 2693,
      "ĠiletiÅŁim": 2694,
      "UL": 2695,
      "Ġbelir": 2696,
      "ĠTakÄ±mÄ±": 2697,
      "ĠolmuÅŁ": 2698,
      "ï¸": 2699,
      "ĠgÃ¶rÃ¼ÅŁme": 2700,
      "Ġdair": 2701,
      "ï¸ı": 2702,
      "ĠAÄŁ": 2703,
      "Ġsit": 2704,
      "Ġvak": 2705,
      "laÅŁÄ±k": 2706,
      "antasÄ±": 2707,
      "Ġmevcuttur": 2708,
      "ĠDiÄŁer": 2709,
      "ĠdÄ±ÅŁÄ±nda": 2710,
      "ĠAt": 2711,
      "UR": 2712,
      "Ġnet": 2713,
      "Ġkom": 2714,
      "vet": 2715,
      "Ġkargom": 2716,
      "oratif": 2717,
      "ĠlazÄ±m": 2718,
      "medi": 2719,
      "tuk": 2720,
      "ĠTeÅŁekkÃ¼r": 2721,
      "Ġbeg": 2722,
      "ĠyumuÅŁak": 2723,
      "Ġarac": 2724,
      "ĠvardÄ±r": 2725,
      "Ġbenimle": 2726,
      "gul": 2727,
      "giniz": 2728,
      "sil": 2729,
      "ĠkaldÄ±m": 2730,
      "Ġcam": 2731,
      "Ġbilgilendirme": 2732,
      "ase": 2733,
      "Ġfirmalar": 2734,
      "Ã¼per": 2735,
      "Ġverilm": 2736,
      "ĠkullanÄ±yorum": 2737,
      "ĠIÃ§": 2738,
      "Ġnokt": 2739,
      "Ġpan": 2740,
      "tarÄ±": 2741,
      "ĠOto": 2742,
      "Ġonun": 2743,
      "uÄŁ": 2744,
      "Ġort": 2745,
      "inda": 2746,
      "zer": 2747,
      "Ã¼mÃ¼z": 2748,
      "ĠnumaranÄ±z": 2749,
      "mini": 2750,
      "42": 2751,
      "ĠKumaÅŁ": 2752,
      "Ġyerine": 2753,
      "Ġit": 2754,
      "larla": 2755,
      "Ġaktif": 2756,
      "Ä±ldÄ±": 2757,
      "Ġkarta": 2758,
      "iydi": 2759,
      "Ġses": 2760,
      "ĠÃ¶r": 2761,
      "ĠedilmiÅŁ": 2762,
      "ĠPr": 2763,
      "bat": 2764,
      "hesab": 2765,
      "Ġkargoda": 2766,
      "ĠiÃ§ermez": 2767,
      "Ġkargon": 2768,
      "Ġmode": 2769,
      "Ġdep": 2770,
      "ĠbaskÄ±lÄ±": 2771,
      "ĠGar": 2772,
      "ku": 2773,
      "bul": 2774,
      "ĠSet": 2775,
      "eyiz": 2776,
      "ĠaÄŁÄ±rlÄ±k": 2777,
      "ĠRes": 2778,
      "oyu": 2779,
      "ĠkÄ±lÄ±fÄ": 2780,
      "ĠkÄ±lÄ±fÄ±": 2781,
      "Ġsak": 2782,
      "ĠÅŁekl": 2783,
      "ĠalÄ±r": 2784,
      "ĠkÄ±z": 2785,
      "larÄ±na": 2786,
      "mail": 2787,
      "sat": 2788,
      "ĠkullandÄ±ÄŁÄ±nÄ±z": 2789,
      "asÄ±na": 2790,
      "Ġetk": 2791,
      "ĠNo": 2792,
      "simum": 2793,
      "Ġdiy": 2794,
      "ĠmÄ±sÄ±nÄ±z": 2795,
      "fe": 2796,
      "88": 2797,
      "ĠÃ¼rÃ¼nde": 2798,
      "ĠStk": 2799,
      "arkod": 2800,
      "ĠParÃ§a": 2801,
      "Ġederek": 2802,
      "gÃ¼zel": 2803,
      "ore": 2804,
      "Ġedilmesi": 2805,
      "Oppo": 2806,
      "Ã¼lerek": 2807,
      "Ġiadeye": 2808,
      "ĠMdf": 2809,
      "ĠcanlÄ±": 2810,
      "mutlu": 2811,
      "43": 2812,
      "Ġ80": 2813,
      "Ġboyut": 2814,
      "afa": 2815,
      "Ġderece": 2816,
      "ĠolduÄŁum": 2817,
      "taj": 2818,
      "Ġseve": 2819,
      "ĠyalnÄ±z": 2820,
      "Ä°Y": 2821,
      "ĠOy": 2822,
      "aketi": 2823,
      "Ġbunun": 2824,
      "Ġiletiyorum": 2825,
      "Ã¼rÃ¼nÃ¼n": 2826,
      "iliyor": 2827,
      "asil": 2828,
      "ĠKenar": 2829,
      "iÃ§ek": 2830,
      "iÅŁtir": 2831,
      "ni": 2832,
      "esuar": 2833,
      "emin": 2834,
      "Ġistedim": 2835,
      "ediÄŁi": 2836,
      "Ġara": 2837,
      "efer": 2838,
      "ell": 2839,
      "luÄŁu": 2840,
      "creti": 2841,
      "Ġset": 2842,
      "ĠLÃ¼tfen": 2843,
      "ĠÃ¼zere": 2844,
      "deal": 2845,
      "ĠyapÄ±yor": 2846,
      "ĠyÄ±ldÄ±z": 2847,
      "Ġvermek": 2848,
      "Ġservis": 2849,
      "Ġbizler": 2850,
      "Ġ90": 2851,
      "icem": 2852,
      "ĠKalÄ±n": 2853,
      "Ġhediy": 2854,
      "ester": 2855,
      "ĠtÃ¼ket": 2856,
      "min": 2857,
      "ĠÃ¼rÃ¼nÃ¼mÃ¼z": 2858,
      "Ġistemem": 2859,
      "yani": 2860,
      "Ġbanka": 2861,
      "Ġgereken": 2862,
      "uÅŁu": 2863,
      "ÃľrÃ¼nÃ¼n": 2864,
      "ĠGÃ¶rsel": 2865,
      "ĠyaÅŁanan": 2866,
      "oyum": 2867,
      "ĠVE": 2868,
      "don": 2869,
      "Ã¼tÃ¼n": 2870,
      "und": 2871,
      "Ġgider": 2872,
      "Ġresimde": 2873,
      "Ġmet": 2874,
      "saÄŁlÄ±klÄ±": 2875,
      "ĠsÃ¼reli": 2876,
      "ĠyaptÄ±m": 2877,
      "Ġeb": 2878,
      "77": 2879,
      "ĠÃĸlÃ§Ã¼": 2880,
      "ĠAhÅŁap": 2881,
      "ZEL": 2882,
      "Ġtekrardan": 2883,
      "Ġmudur": 2884,
      "Ġyapmak": 2885,
      "Ġpeki": 2886,
      "yum": 2887,
      "Ġayr": 2888,
      "66": 2889,
      "ĠÄ°n": 2890,
      "ÅŁe": 2891,
      "AZ": 2892,
      "uzlu": 2893,
      "ermu": 2894,
      "ĠBen": 2895,
      "ari": 2896,
      "alz": 2897,
      "ĠzararlÄ±": 2898,
      "ĠtasarÄ±m": 2899,
      "ĠbaskÄ": 2900,
      "ĠbaskÄ±": 2901,
      "Ã¶yle": 2902,
      "weatshirt": 2903,
      "Ġabi": 2904,
      "stron": 2905,
      "!!": 2906,
      "ĠBatar": 2907,
      "Ġulas": 2908,
      "iltr": 2909,
      "Ġistemiyorum": 2910,
      "Ġbizimle": 2911,
      "ĠMan": 2912,
      "ĠyoÄŁunluk": 2913,
      "ĠTemp": 2914,
      "lerine": 2915,
      "tabiki": 2916,
      "DA": 2917,
      "Ġyapar": 2918,
      "mlek": 2919,
      "sÃ¼": 2920,
      "Ġelbise": 2921,
      "ej": 2922,
      "Ġnezaketiniz": 2923,
      "Ġotur": 2924,
      "LAR": 2925,
      "sal": 2926,
      "Ġkez": 2927,
      "ĠGen": 2928,
      "Ġedilir": 2929,
      "ĠÅŁir": 2930,
      "ilerimiz": 2931,
      "ĠIphone": 2932,
      "ĠnumarasÄ±nÄ±": 2933,
      "01": 2934,
      "Ä±yla": 2935,
      "Ã¢": 2936,
      "ĠkalÄ±bÄ±": 2937,
      "ĠgÃ¶rÃ¼ntÃ¼l": 2938,
      "ĠyarÄ±n": 2939,
      "ĠGr": 2940,
      "Ġideal": 2941,
      "mÃ¼ÅŁ": 2942,
      "ĠNano": 2943,
      "ĠgerÃ§ekleÅŁ": 2944,
      "Ġ70": 2945,
      "ĠPamuk": 2946,
      "yen": 2947,
      "fi": 2948,
      "Ġkas": 2949,
      "ĠtasarlanmÄ±ÅŁtÄ±r": 2950,
      "Ġtakdir": 2951,
      "aptop": 2952,
      "aa": 2953,
      "ĠbulunmaktadÄ±r": 2954,
      "Ä°K": 2955,
      "bur": 2956,
      "ĠDet": 2957,
      "Ġtabi": 2958,
      "LU": 2959,
      "baÅŁ": 2960,
      "Ġeski": 2961,
      "Ġsebep": 2962,
      "yÄ±m": 2963,
      "Ġoyun": 2964,
      "meli": 2965,
      "cÃ¼": 2966,
      "tor": 2967,
      "Ġvermez": 2968,
      "ĠdeÄŁiÅŁikliÄŁi": 2969,
      "eksiyon": 2970,
      "ĠYeÅŁil": 2971,
      "dÃ¼ÄŁ": 2972,
      "ĠgÃ¶rÃ¼yorum": 2973,
      "Ġun": 2974,
      "Ġyapabilir": 2975,
      "Ġona": 2976,
      "ĠkullanÄ±labilir": 2977,
      "Ġaksiyon": 2978,
      "ĠAra": 2979,
      "Ġbulunma": 2980,
      "Ġ2021": 2981,
      "ebiliyor": 2982,
      "eyifli": 2983,
      "ebilirim": 2984,
      "LERÄ°": 2985,
      "Ġtaban": 2986,
      "Ġtalebi": 2987,
      "bana": 2988,
      "ĠTam": 2989,
      "ĠÃ¼retilmektedir": 2990,
      "sÄ±n": 2991,
      "onlu": 2992,
      "rÄ±ca": 2993,
      "Ġik": 2994,
      "Ay": 2995,
      "ĠBebek": 2996,
      "arklÄ±": 2997,
      "Ġkusurlu": 2998,
      "ĠBal": 2999,
      "Ġilgilen": 3000,
      "Ġex": 3001,
      "Ġinsan": 3002,
      "Ġbah": 3003,
      "ĠÃ¶zelliÄŁi": 3004,
      "Ġburadan": 3005,
      "ĠmÄ±dÄ±r": 3006,
      "Ä°Åŀ": 3007,
      "Ä±sa": 3008,
      "ĠÃ¶nc": 3009,
      "Ġnerede": 3010,
      "anser": 3011,
      "ilecek": 3012,
      "Ġbence": 3013,
      "Ġmaksimum": 3014,
      "LE": 3015,
      "aca": 3016,
      "Ġkurul": 3017,
      "Ġolun": 3018,
      "ĠuÄŁr": 3019,
      "Ġgecikme": 3020,
      "ĠgÃ¶rÃ¼nÃ¼m": 3021,
      "Ġpuan": 3022,
      "ĠRenkli": 3023,
      "Ġpr": 3024,
      "ĠTer": 3025,
      "Ġdefor": 3026,
      "Ben": 3027,
      "umaÅŁÄ±": 3028,
      "Ġmuh": 3029,
      "ĠgÃ¶rÃ¼yor": 3030,
      "ĠTopuk": 3031,
      "tiniz": 3032,
      "ĠYÄ±l": 3033,
      "ĠyapÄ±lan": 3034,
      "alaj": 3035,
      "ĠÃ§Ä±ktÄ±": 3036,
      "ĠgelmiÅŁ": 3037,
      "nezaketiniz": 3038,
      "dÄ±nÄ±z": 3039,
      "Ġedem": 3040,
      "Ġolabilirsiniz": 3041,
      "Ġnolu": 3042,
      "GÃ¼zel": 3043,
      "ĠSayÄ±sÄ±": 3044,
      "Ġ21": 3045,
      "ĠartÄ±k": 3046,
      "ĠKul": 3047,
      "ĠSerisi": 3048,
      "ĠSaat": 3049,
      "ĠmÃ¼ÅŁterimize": 3050,
      "anseroj": 3051,
      "ĠÃĸr": 3052,
      "bi": 3053,
      "ĠsatÄ±cÄ±ya": 3054,
      "OT": 3055,
      "ĠTemperli": 3056,
      "Ġisminizi": 3057,
      "esiz": 3058,
      "IM": 3059,
      "ĠyapmÄ±ÅŁ": 3060,
      "tesekkur": 3061,
      "dikten": 3062,
      "uzu": 3063,
      "abilmeniz": 3064,
      "ĠsÄ±cak": 3065,
      "ĠKah": 3066,
      "ĠsanÄ±rÄ±m": 3067,
      "Ġedip": 3068,
      "dÄ±ÄŁÄ±mda": 3069,
      "ĠÃ¼zgÃ¼nÃ¼m": 3070,
      "Ġyen": 3071,
      "mÃ¼ÅŁt": 3072,
      "Apple": 3073,
      "ĠÄ°Ã§er": 3074,
      "ĠkÄ±smÄ±ndan": 3075,
      "umalÄ±": 3076,
      "Ġkampanya": 3077,
      "Ġberaber": 3078,
      "ipi": 3079,
      "ĠyakÄ±n": 3080,
      "biz": 3081,
      "59": 3082,
      "eklik": 3083,
      "ijinal": 3084,
      "Ġedin": 3085,
      "mr": 3086,
      "laka": 3087,
      "ĠgÃ¼ndÃ¼r": 3088,
      "ĠyapÄ±sÄ±": 3089,
      "Ġplastik": 3090,
      "tÃ¼r": 3091,
      "anladÄ±m": 3092,
      "ÅŁu": 3093,
      "ee": 3094,
      "anÄ": 3095,
      "ĠyapÄ±lmÄ±ÅŁ": 3096,
      "anÄ±": 3097,
      "meler": 3098,
      "incir": 3099,
      "Ġhitap": 3100,
      "htiy": 3101,
      "Ġlir": 3102,
      "Ġkargolan": 3103,
      "digim": 3104,
      "ĠKart": 3105,
      "ĠistediÄŁim": 3106,
      "lamasÄ±": 3107,
      "ww": 3108,
      "za": 3109,
      "ull": 3110,
      "ĠÃĸZEL": 3111,
      "ĠMetal": 3112,
      "ĠtedarikÃ§": 3113,
      "tt": 3114,
      "alet": 3115,
      "tiÄŁiniz": 3116,
      "ĠsÃ¶yl": 3117,
      "ĠÅŁeklinde": 3118,
      "ĠsÃ¼reci": 3119,
      "forman": 3120,
      "ĠÃ¼creti": 3121,
      "Ġiyisiniz": 3122,
      "ĠDek": 3123,
      "ĠkarÅŁÄ±laÅŁ": 3124,
      "iyol": 3125,
      "86": 3126,
      "Ġman": 3127,
      "imin": 3128,
      "yester": 3129,
      "Ġderi": 3130,
      "ĠsatÄ±lan": 3131,
      "ĠðŁ": 3132,
      "Ġsag": 3133,
      "ĠalÄ±nmÄ±ÅŁ": 3134,
      "Ġdan": 3135,
      "Ġmin": 3136,
      "ĠOl": 3137,
      "ĠSev": 3138,
      "Ġbilgileri": 3139,
      "Ġolmuyor": 3140,
      "erÃ§ev": 3141,
      "kes": 3142,
      "Ġnaz": 3143,
      "Ġpaketi": 3144,
      "ĠhiÃ§bir": 3145,
      "ĠKÃ¶": 3146,
      "ĠMalz": 3147,
      "lacak": 3148,
      "ĠsaÄŁlayabilirsiniz": 3149,
      "ĠAL": 3150,
      "Ġcik": 3151,
      "gin": 3152,
      "emedim": 3153,
      "72": 3154,
      "41": 3155,
      "oh": 3156,
      "ÃľrÃ¼nÃ¼": 3157,
      "eyecek": 3158,
      "ĠkalÄ±nlÄ±ÄŁ": 3159,
      "ĠtakÄ±m": 3160,
      "atik": 3161,
      "ĠaÅŁÄ±rÄ±": 3162,
      "Ġyetkili": 3163,
      "ĠCihaz": 3164,
      "Ġiyisinizdir": 3165,
      "Ġpantolon": 3166,
      "Ġlink": 3167,
      "ĠyaÅŁadÄ±ÄŁÄ±nÄ±z": 3168,
      "Ġuyum": 3169,
      "ibar": 3170,
      "ST": 3171,
      "ĠgÃ¶sterir": 3172,
      "ĠTrendyol": 3173,
      "iyeti": 3174,
      "Ġiletebilirsiniz": 3175,
      "ĠulaÅŁtÄ±r": 3176,
      "ĠAparat": 3177,
      "Ġcep": 3178,
      "ĠiÃ§i": 3179,
      "ĠettiÄŁim": 3180,
      "Ġerkek": 3181,
      "ff": 3182,
      "iÅŁtim": 3183,
      "ĠkapaÄŁ": 3184,
      "Ġdeforme": 3185,
      "Ä±lmasÄ±": 3186,
      "ms": 3187,
      "Ġ)": 3188,
      "Ġorjinal": 3189,
      "ga": 3190,
      "ĠÃ¶zen": 3191,
      "ĠkÄ±smÄ±nda": 3192,
      "IR": 3193,
      "Ä°LÄ°": 3194,
      "ĠtarafÄ±nÄ±za": 3195,
      "ĠYaÅŁ": 3196,
      "lari": 3197,
      "erj": 3198,
      "Ġport": 3199,
      "Ġmon": 3200,
      "Ġbelg": 3201,
      "ablosu": 3202,
      "fÄ±r": 3203,
      "Ġorijinal": 3204,
      "ĠhÄ±z": 3205,
      "ĠLaptop": 3206,
      "eyn": 3207,
      "ĠÃ¶lÃ§Ã¼leri": 3208,
      "ĠKr": 3209,
      "van": 3210,
      "Bir": 3211,
      "aret": 3212,
      "Ġark": 3213,
      "ud": 3214,
      "pres": 3215,
      "Ġbulunmuyor": 3216,
      "kur": 3217,
      "dem": 3218,
      "Ġekiplerimiz": 3219,
      "Ä±labilir": 3220,
      "Ġbedeninizi": 3221,
      "miyim": 3222,
      "ĠoldukÃ§a": 3223,
      "ĠolmadÄ±ÄŁÄ±": 3224,
      "ton": 3225,
      "ĠaraÃ§": 3226,
      "aci": 3227,
      "ĠDetay": 3228,
      "Ġton": 3229,
      "bol": 3230,
      "ÅŁk": 3231,
      "Ġmodeli": 3232,
      "Ġmetal": 3233,
      "ĠAyar": 3234,
      "Ġsert": 3235,
      "ĠiÅŁlemler": 3236,
      "Ġhis": 3237,
      "Ġadresi": 3238,
      "lum": 3239,
      "usunu": 3240,
      "ĠKolye": 3241,
      "ĠÅŀeffaf": 3242,
      "ĠBak": 3243,
      "Ġkorur": 3244,
      "diÄŁini": 3245,
      "Ġsur": 3246,
      "ĠKupa": 3247,
      "Ġtakdirde": 3248,
      "ĠTut": 3249,
      "Ä±nca": 3250,
      "ĠGÃ¶z": 3251,
      "ĠtatlÄ±": 3252,
      "stem": 3253,
      "Ġâ": 3254,
      "memnun": 3255,
      "ĠuÄŁraÅŁ": 3256,
      "Ġkanseroj": 3257,
      "akkab": 3258,
      "74": 3259,
      "Ġseverek": 3260,
      "Ġ2019": 3261,
      "Ġbez": 3262,
      "ĠSm": 3263,
      "qu": 3264,
      "58": 3265,
      "elen": 3266,
      "56": 3267,
      "SipariÅŁ": 3268,
      "ĠÃĸzellikleri": 3269,
      "ox": 3270,
      "ĠbaskÄ±sÄ±": 3271,
      "ded": 3272,
      "Ġgenel": 3273,
      "are": 3274,
      "ĠDer": 3275,
      "ĠBardak": 3276,
      "ĠbÄ": 3277,
      "ĠbÄ±": 3278,
      "iÄŁin": 3279,
      "ĠAnti": 3280,
      "ĠkarÅŁ": 3281,
      "ĠAÃ§Ä±k": 3282,
      "02": 3283,
      "kl": 3284,
      "ĠSpor": 3285,
      "sizi": 3286,
      "ASI": 3287,
      "mayan": 3288,
      "Ġalama": 3289,
      "ĠaklÄ±nÄ±za": 3290,
      "Ġ2020": 3291,
      "ĠgÃ¼nlÃ¼k": 3292,
      "ĠÃ¼rÃ¼nlerimiz": 3293,
      "Ġyoktur": 3294,
      "lemek": 3295,
      "alÄ±p": 3296,
      "Ġkiloyum": 3297,
      "Ġkolayca": 3298,
      "ĠyaklaÅŁÄ±k": 3299,
      "aza": 3300,
      "atma": 3301,
      "ĠHed": 3302,
      "tam": 3303,
      "ĠAm": 3304,
      "imden": 3305,
      "stan": 3306,
      "Ġmah": 3307,
      "ĠsÄ±ÄŁ": 3308,
      "uzdan": 3309,
      "Ġarada": 3310,
      "ĠdÃ¼zel": 3311,
      "Ġbuy": 3312,
      "kaÃ§": 3313,
      "ĠbaÅŁar": 3314,
      "Ġuygulan": 3315,
      "Ġmik": 3316,
      "Ġsaniye": 3317,
      "Ä°NÄ°Z": 3318,
      "ĠgÃ¶nderimi": 3319,
      "Ġ2018": 3320,
      "alt": 3321,
      "Ġtelefonunuzun": 3322,
      "Ġedebilmek": 3323,
      "ĠÃĩantasÄ±": 3324,
      "ĠDarb": 3325,
      "Siyah": 3326,
      "Ġtalebiniz": 3327,
      "Ġdesenli": 3328,
      "ĠgÃ¼l": 3329,
      "Ġplan": 3330,
      "Ġsebebi": 3331,
      "Ġdeg": 3332,
      "ĠyÄ±kan": 3333,
      "Ġorta": 3334,
      "ĠgÃ¼Ã§": 3335,
      "ĠAraÃ§": 3336,
      "ĠgÃ¶ndermiÅŁ": 3337,
      "Ġihtiy": 3338,
      "ÅŁey": 3339,
      "Ġseti": 3340,
      "ĠgÃ¼venli": 3341,
      "per": 3342,
      "''>": 3343,
      "Ġolursa": 3344,
      "icek": 3345,
      "duk": 3346,
      "ĠyapÄ": 3347,
      "ĠyapÄ±": 3348,
      "Ġ35": 3349,
      "asÄ±ndan": 3350,
      "ĠKan": 3351,
      "strong": 3352,
      "ĠKorumalÄ±": 3353,
      "ĠdeÄŁiÅŁiklik": 3354,
      "ĠSipariÅŁ": 3355,
      "Ġfalan": 3356,
      "ĠKamera": 3357,
      "ĠcihazÄ±nÄ±za": 3358,
      "ĠÄ±s": 3359,
      "ĠdoÄŁal": 3360,
      "istim": 3361,
      "Ġmavi": 3362,
      "ĠsaÄŁlanacaktÄ±r": 3363,
      "ber": 3364,
      "ĠAdÄ±": 3365,
      "ĠEÅŁ": 3366,
      "ptal": 3367,
      "Ġ45": 3368,
      "olar": 3369,
      "Ġur": 3370,
      "El": 3371,
      "adi": 3372,
      "hesabÄ±m": 3373,
      "ĠHer": 3374,
      "ĠalakalÄ±": 3375,
      "ĠSaÄŁlÄ±ÄŁa": 3376,
      "ĠKoruma": 3377,
      "ĠEsnek": 3378,
      "IL": 3379,
      "anda": 3380,
      "aha": 3381,
      "mam": 3382,
      "Ġdefa": 3383,
      "dÄ±ÄŁÄ±mÄ±z": 3384,
      "ĠalÄ±yor": 3385,
      "Ġlik": 3386,
      "Ġisim": 3387,
      "ĠUV": 3388,
      "luÄŁ": 3389,
      "png": 3390,
      "ĠbayÄ±ldÄ±m": 3391,
      "Ġdef": 3392,
      "ebook": 3393,
      "ĠaltÄ±nda": 3394,
      "ĠaktarÄ±m": 3395,
      "sep": 3396,
      "larÄ±nÄ±z": 3397,
      "Ġkonusunda": 3398,
      "Ġbulunuyor": 3399,
      "ĠalÄ±ÅŁveriÅŁler": 3400,
      "ĠAsk": 3401,
      "ĠElbise": 3402,
      "Ġetmenizi": 3403,
      "satÄ±cÄ±": 3404,
      "arken": 3405,
      "Ġkav": 3406,
      "ose": 3407,
      "ĠYayÄ±n": 3408,
      "izi": 3409,
      "ĠyÄ±kama": 3410,
      "kar": 3411,
      "ofman": 3412,
      "apÄ": 3413,
      "apÄ±": 3414,
      "meye": 3415,
      "ĠTeÅŁekkÃ¼rler": 3416,
      "Ġbebek": 3417,
      "IK": 3418,
      "????": 3419,
      "fakat": 3420,
      "ĠkÄ±lÄ±fÄ±n": 3421,
      "An": 3422,
      "ancak": 3423,
      "Ġnasil": 3424,
      "Ġ500": 3425,
      "''>''": 3426,
      "eÄŁerli": 3427,
      "ĠÃ¼retim": 3428,
      "dest": 3429,
      "Ġperforman": 3430,
      "Ã¶nder": 3431,
      "ks": 3432,
      "Ã§ak": 3433,
      "Ġgaranti": 3434,
      "ĠYaka": 3435,
      "olor": 3436,
      "Ġedebilmem": 3437,
      "79": 3438,
      "Ġyapabilirsiniz": 3439,
      "52": 3440,
      "Ġanlam": 3441,
      "eceÄŁiz": 3442,
      "ĠBatarya": 3443,
      "ĠÃĸZELLÄ°K": 3444,
      "landÄ±r": 3445,
      "neden": 3446,
      "izyon": 3447,
      "ĠMer": 3448,
      "mekte": 3449,
      "ĠverdiÄŁim": 3450,
      "ĠNe": 3451,
      "amadÄ±ÄŁÄ±": 3452,
      "Ġolurum": 3453,
      "ĠHavuzlu": 3454,
      "ĠTar": 3455,
      "Ġmalzemeden": 3456,
      "Ġtamamen": 3457,
      "Ġbizlere": 3458,
      "73": 3459,
      "Ġbaya": 3460,
      "Ġtarz": 3461,
      "ĠbeÄŁen": 3462,
      "gÃ¶rÃ¼ÅŁ": 3463,
      "ĠsÃ¼rekli": 3464,
      "oot": 3465,
      "Ġamb": 3466,
      "ĠanlayÄ±ÅŁÄ±nÄ±z": 3467,
      "ĠSu": 3468,
      "ĠKargo": 3469,
      "enc": 3470,
      "ĠaÃ§Ä±l": 3471,
      "tÄ±ktan": 3472,
      "ram": 3473,
      "istan": 3474,
      "ĠUl": 3475,
      "ĠAs": 3476,
      "ĠkÄ±lÄ±flar": 3477,
      "Ġkullanabilmeniz": 3478,
      "tesi": 3479,
      "ĠÃĸlÃ§Ã¼leri": 3480,
      "ĠÃĩiz": 3481,
      "ĠKay": 3482,
      "Ġkuponu": 3483,
      "Ġmalzemedir": 3484,
      "Ġtel": 3485,
      "ĠÃ¼rÃ¼nden": 3486,
      "iyiz": 3487,
      "mesini": 3488,
      "madi": 3489,
      "pe": 3490,
      "ĠbÃ¼tÃ¼n": 3491,
      "ĠsipariÅŁleriniz": 3492,
      "icker": 3493,
      "Ġmemnuniyetiniz": 3494,
      "ĠoluÅŁturdum": 3495,
      "sipariÅŁim": 3496,
      "ĠiÃ§eriÄŁi": 3497,
      "taki": 3498,
      "gen": 3499,
      "irseniz": 3500,
      "Ġzarar": 3501,
      "Ġgerekir": 3502,
      "ĠDarbelere": 3503,
      "Ġistiyor": 3504,
      "ens": 3505,
      "Ġkonuyla": 3506,
      "Ġyuk": 3507,
      "ĠEv": 3508,
      "dapt": 3509,
      "ĠÃ¼yemiz": 3510,
      "Ã¼cret": 3511,
      "ĠboÅŁ": 3512,
      "Ġnumaram": 3513,
      "Ġanlat": 3514,
      "Ġaray": 3515,
      "Ġdemektir": 3516,
      "ĠgÃ¶rÃ¼ÅŁmeyi": 3517,
      "raf": 3518,
      "Ġveriniz": 3519,
      "ĠdÃ¶k": 3520,
      "dÃ¼m": 3521,
      "je": 3522,
      "Ġ199": 3523,
      "Ġ22": 3524,
      "abilecek": 3525,
      "Ġolduktan": 3526,
      "ĠkÄ±sÄ±m": 3527,
      "Ġte": 3528,
      "ĠDoÄŁ": 3529,
      "Ġ42": 3530,
      "ĠAma": 3531,
      "ĠyaÅŁamÄ±ÅŁ": 3532,
      "amaÅŁ": 3533,
      "Ġkis": 3534,
      "ĠYÃ¼zÃ¼k": 3535,
      "Ġetmeniz": 3536,
      "ĠsipariÅŁinizi": 3537,
      "ĠÄ°Ãĩ": 3538,
      "enmedim": 3539,
      "orun": 3540,
      "Ġolurmu": 3541,
      "Ġisterseniz": 3542,
      "eÄŁer": 3543,
      "Ġfor": 3544,
      "ĠÃľst": 3545,
      "ĠÃ¼rÃ¼nlerde": 3546,
      "larÄ±mÄ±zla": 3547,
      "ĠmarkasÄ±nÄ±": 3548,
      "ĠKÄ±z": 3549,
      "acivert": 3550,
      "Ġgri": 3551,
      "ĠSamsung": 3552,
      "ĠkÄ±lÄ±flardan": 3553,
      "adres": 3554,
      "ima": 3555,
      "oloj": 3556,
      "Ġstandart": 3557,
      "AÄŀ": 3558,
      "ĠkapaÄŁÄ±nÄ±n": 3559,
      "tÄ±ÄŁÄ": 3560,
      "tÄ±ÄŁÄ±": 3561,
      "ĠTaban": 3562,
      "lemesi": 3563,
      "Ġveriyor": 3564,
      "daptÃ¶r": 3565,
      "Ġindir": 3566,
      "lac": 3567,
      "Ġparlak": 3568,
      "ĠyaptÄ±ÄŁÄ±nÄ±z": 3569,
      "geÃ§": 3570,
      "Ġdokusunu": 3571,
      "ĠulaÅŁmadÄ±": 3572,
      "Ġtesekkurler": 3573,
      "ĠGold": 3574,
      "trav": 3575,
      "Ġkokusu": 3576,
      "Ã¼pe": 3577,
      "ĠkalÄ±nlÄ±ÄŁÄ±ndadÄ±r": 3578,
      "Ä±mÄ±za": 3579,
      "yas": 3580,
      "Ġverilir": 3581,
      "iyole": 3582,
      "abilmek": 3583,
      "luz": 3584,
      "ĠgÃ¶rÃ¼yorsanÄ±z": 3585,
      "Ä±nÄ±zdan": 3586,
      "Ġkury": 3587,
      "**": 3588,
      "Ġtoza": 3589,
      "ĠYeni": 3590,
      "traviyole": 3591,
      "pr": 3592,
      "ĠmÃ¼ÅŁterilerimiz": 3593,
      "Ä±lÄ±k": 3594,
      "tekrar": 3595,
      "ĠKat": 3596,
      "lanabilir": 3597,
      "hone": 3598,
      "Ġevde": 3599,
      "ĠÃ§Ä±kartmadan": 3600,
      "ĠTes": 3601,
      "Ġlim": 3602,
      "uruncu": 3603,
      "Ġmodelinin": 3604,
      "ÅŁuan": 3605,
      "ediler": 3606,
      "ĠGÃ¶rsellerde": 3607,
      "oda": 3608,
      "Ġkusur": 3609,
      "isine": 3610,
      "tiÄŁim": 3611,
      "Ġbal": 3612,
      "Ġbelli": 3613,
      "Ġsorunu": 3614,
      "Ġnedeniyle": 3615,
      "Ġvs": 3616,
      "ĠiÅŁlemlerinizi": 3617,
      "ĠMotor": 3618,
      "tl": 3619,
      "ĠÃĩift": 3620,
      "ĠsonlandÄ±rÄ±lacak": 3621,
      "Ġmalesef": 3622,
      "Ġbed": 3623,
      "ĠiÅŁlemleriniz": 3624,
      "iklet": 3625,
      "ĠTav": 3626,
      "Ġsoyulan": 3627,
      "elif": 3628,
      "ĠÄ": 3629,
      "Ġpil": 3630,
      "Ġbarkod": 3631,
      "Ġetmem": 3632,
      "Ġesn": 3633,
      "ĠyalnÄ±zca": 3634,
      "ĠgÃ¼nde": 3635,
      "lasik": 3636,
      "ĠSaygÄ±": 3637,
      "94": 3638,
      "Ã§lÄ±": 3639,
      "ĠkadÄ±n": 3640,
      "ĠportlarÄ±": 3641,
      "Ġkredi": 3642,
      "ĠTl": 3643,
      "onik": 3644,
      "ight": 3645,
      "ast": 3646,
      "ĠÃ¼zÃ¼lerek": 3647,
      "Ġmodelle": 3648,
      "Ġekibimiz": 3649,
      "Ġrap": 3650,
      "acÄ": 3651,
      "ĠÃ¶zellikleri": 3652,
      "acÄ±": 3653,
      "ĠÃĸZELLÄ°KLERÄ°": 3654,
      "08": 3655,
      "ultraviyole": 3656,
      "ĠÃ§ift": 3657,
      "Ġkanserojendir": 3658,
      "TR": 3659,
      "ĠBaÅŁ": 3660,
      "AH": 3661,
      "ĠtekniÄŁin": 3662,
      "ĠtekniÄŁinyle": 3663,
      "ayt": 3664,
      "ĠTÃ¼m": 3665,
      "ĠgeÃ§erli": 3666,
      "Ã¼rÃ¼nÃ¼m": 3667,
      "ony": 3668,
      "deÄŁ": 3669,
      "ĠÄ±": 3670,
      "fatur": 3671,
      "Ġadrese": 3672,
      "Ġuyumludur": 3673,
      "nik": 3674,
      "âĢĿ": 3675,
      "meyi": 3676,
      "ĠDik": 3677,
      "ĠSuya": 3678,
      "Ġgiyiyorum": 3679,
      "ĠgÃ¶nderilmektedir": 3680,
      "orap": 3681,
      "ĠhesabÄ±m": 3682,
      "ĠÃ¼yel": 3683,
      "dÄ±ÄŁÄ±ndan": 3684,
      "ĠfiyatÄ±na": 3685,
      "ĠÃ¼zerindeki": 3686,
      "ane": 3687,
      "Ġle": 3688,
      "ry": 3689,
      "ser": 3690,
      "51": 3691,
      "ĠÃ¼Ã§": 3692,
      "93": 3693,
      "ĠÃ¼rÃ¼ne": 3694,
      "ĠsonrasÄ±nda": 3695,
      "ĠOyun": 3696,
      "06": 3697,
      "Ã¼ph": 3698,
      "ĠyÃ¼zey": 3699,
      "Ġ|": 3700,
      "ĠgÃ¼mÃ¼ÅŁ": 3701,
      "stra": 3702,
      "Ġkurye": 3703,
      "Ġbun": 3704,
      "ĠNotebook": 3705,
      "Ġbilir": 3706,
      "Ġzorunda": 3707,
      "oder": 3708,
      "aliz": 3709,
      "ĠMini": 3710,
      "ĠDuvar": 3711,
      "dÄ±n": 3712,
      "Ã¼st": 3713,
      "Ġ23": 3714,
      "ĠIÃ§in": 3715,
      "Ġtoplam": 3716,
      "Ġambalaj": 3717,
      "mÃ¼ÅŁteri": 3718,
      "sistem": 3719,
      "ĠadÄ±": 3720,
      "ĠsaÄŁladÄ±ÄŁÄ±mda": 3721,
      "talama": 3722,
      "ĠUltra": 3723,
      "Ġgid": 3724,
      "Ġcil": 3725,
      "54": 3726,
      "Ġkrem": 3727,
      "92": 3728,
      "destek": 3729,
      "ĠanlÄ±k": 3730,
      "ĠAltÄ±n": 3731,
      "acag": 3732,
      "Ġkarar": 3733,
      "ekteyim": 3734,
      "ĠolacaÄŁÄ±m": 3735,
      "likler": 3736,
      "isex": 3737,
      "ĠÃ§ev": 3738,
      "ulmuÅŁ": 3739,
      "Ġmutlaka": 3740,
      "Ġ26": 3741,
      "ban": 3742,
      "Ġbekliyor": 3743,
      "Ġmerhaba": 3744,
      "ĠanlaÅŁ": 3745,
      "ĠMarka": 3746,
      "mes": 3747,
      "Ġsevdiklerinizle": 3748,
      "ĠBaskÄ±": 3749,
      "gisi": 3750,
      "anlÄ±yorum": 3751,
      "yeni": 3752,
      "sen": 3753,
      "leyici": 3754,
      "celiÄŁ": 3755,
      "say": 3756,
      "aklÄ±nÄ±za": 3757,
      "ĠCilt": 3758,
      "ĠÃ§Ä±kÄ±ÅŁ": 3759,
      "ĠgeÃ§ebilirsiniz": 3760,
      "Ġolmayan": 3761,
      "Ġedilen": 3762,
      "Ġesnek": 3763,
      "egor": 3764,
      "Ġkac": 3765,
      "ĠsonrasÄ±": 3766,
      "ĠgÃ¶nderi": 3767,
      "ĠyapÄ±lÄ±r": 3768,
      "Ġkapak": 3769,
      "ebeÄŁ": 3770,
      "ack": 3771,
      "oo": 3772,
      "Ġverildi": 3773,
      "71": 3774,
      "Ġpanel": 3775,
      "ĠaldÄ±k": 3776,
      "Ġdeney": 3777,
      "ĠÃ§ekim": 3778,
      "Ġyapmaz": 3779,
      "ikli": 3780,
      "anan": 3781,
      "MA": 3782,
      "Ġ150": 3783,
      "muz": 3784,
      "masi": 3785,
      "ĠMate": 3786,
      "Ġsizde": 3787,
      "Ġpembe": 3788,
      "Ġav": 3789,
      "53": 3790,
      "....": 3791,
      "ĠaltÄ±n": 3792,
      "ĠyumuÅŁacÄ±k": 3793,
      "ablet": 3794,
      "ĠbaÅŁarÄ±lÄ±": 3795,
      "tmm": 3796,
      "Ġanlay": 3797,
      "ĠÃľrÃ¼nÃ¼n": 3798,
      "Ġ28": 3799,
      "Ġekley": 3800,
      "Ã¼rÃ¼nÃ¼nÃ¼z": 3801,
      "ayÄ±z": 3802,
      "Ġyarar": 3803,
      "Ġsisteme": 3804,
      "ner": 3805,
      "OD": 3806,
      "ilebilir": 3807,
      "eal": 3808,
      "ĠÃľrÃ¼nlerimiz": 3809,
      "ĠÃ¼zeri": 3810,
      "Ġedilecek": 3811,
      "Ġrenkleri": 3812,
      "ĠduruÅŁu": 3813,
      "ileri": 3814,
      "lis": 3815,
      "Ä°yi": 3816,
      "Ġtaksit": 3817,
      "ĠKon": 3818,
      "ital": 3819,
      "Ġ>": 3820,
      "TA": 3821,
      "ĠSticker": 3822,
      "ndirim": 3823,
      "IS": 3824,
      "Ġkonusu": 3825,
      "maÄŁ": 3826,
      "ĠMin": 3827,
      "ati": 3828,
      "ĠKil": 3829,
      "ĠAv": 3830,
      "tiÄŁi": 3831,
      "Ġlek": 3832,
      "fÃ¼m": 3833,
      "0000": 3834,
      "Ġkaplama": 3835,
      "Ġdek": 3836,
      "ĠYarÄ±": 3837,
      "91": 3838,
      "ĠKablo": 3839,
      "Ġlastik": 3840,
      "Ġtemsil": 3841,
      "ĠSh": 3842,
      "ĠistediÄŁ": 3843,
      "Ġspor": 3844,
      "malÄ±dÄ±r": 3845,
      "ĠalÄ±namadÄ±ÄŁÄ±": 3846,
      "Ġbekley": 3847,
      "ĠyapÄ±ÅŁ": 3848,
      "hangi": 3849,
      "izli": 3850,
      "Renk": 3851,
      "Ġye": 3852,
      "Ġ55": 3853,
      "ĠHÄ±zlÄ±": 3854,
      "asit": 3855,
      "Ġab": 3856,
      "ĠKalit": 3857,
      "Ġalin": 3858,
      "Ġmuht": 3859,
      "Ġelimde": 3860,
      "malÄ±yÄ±m": 3861,
      "eceÄŁi": 3862,
      "ĠGÃĸ": 3863,
      "ire": 3864,
      "Ġ75": 3865,
      "ĠÅŁÃ¼ph": 3866,
      "ijama": 3867,
      "ĠKoltuk": 3868,
      "ĠbazÄ": 3869,
      "ĠbazÄ±": 3870,
      "ĠgÃ¶rm": 3871,
      "giler": 3872,
      "ĠKolay": 3873,
      "Ġvereb": 3874,
      "eÅŁem": 3875,
      "Ġmalzeme": 3876,
      "GÃ¶r": 3877,
      "emiyoruz": 3878,
      "ĠulaÅŁabilirsiniz": 3879,
      "Ġcal": 3880,
      "ĠIÅŁ": 3881,
      "ĠaÅŁamada": 3882,
      "ĠÃ§Ä±kÄ±yor": 3883,
      "aliteli": 3884,
      "Ġkapan": 3885,
      "ĠkÄ±rmÄ±zÄ±": 3886,
      "Ä±sÄ±ndan": 3887,
      "Ġuc": 3888,
      "luluk": 3889,
      "ĠTÃ¼rkiye": 3890,
      "ze": 3891,
      "ĠKabÄ±": 3892,
      "amur": 3893,
      "Harika": 3894,
      "ladÄ±": 3895,
      "ĠSweatshirt": 3896,
      "Ġbar": 3897,
      "Ä±lÄ±p": 3898,
      "yanlÄ±ÅŁ": 3899,
      "Ġ48": 3900,
      "ĠAks": 3901,
      "lo": 3902,
      "ĠSÃ¼r": 3903,
      "Ġrenkli": 3904,
      "03": 3905,
      "Ġsorunsuz": 3906,
      "teslimat": 3907,
      "ĠgÃ¶rseldeki": 3908,
      "Ġsen": 3909,
      "aynÄ": 3910,
      "aynÄ±": 3911,
      "Ġanlama": 3912,
      "ĠsÃ¼redir": 3913,
      "emiÅŁ": 3914,
      "Ġsok": 3915,
      "ĠdÃ¼ÅŁÃ¼nÃ¼yorum": 3916,
      "Ġih": 3917,
      "ĠYan": 3918,
      "ĠbÃ¶lg": 3919,
      "ĠSaÄŁlÄ±klÄ±": 3920,
      "ĠgÃ¶nderilecektir": 3921,
      "ĠRengi": 3922,
      "esinlikle": 3923,
      "ĠKedi": 3924,
      "amaÅŁÄ±r": 3925,
      "ĠBlu": 3926,
      "ĠAÄŁÄ±r": 3927,
      "Ġcilt": 3928,
      "ĠSayfa": 3929,
      "hmet": 3930,
      "ĠgeldiÄŁ": 3931,
      "83": 3932,
      "itli": 3933,
      "tak": 3934,
      "Ġgerekmektedir": 3935,
      "LAN": 3936,
      "ĠGÃ¶ÄŁÃ¼s": 3937,
      "ĠanlayÄ±ÅŁ": 3938,
      "Ä°S": 3939,
      "Ġbilmenizi": 3940,
      "Ġhanim": 3941,
      "ĠÄ±ÅŁÄ±k": 3942,
      "rans": 3943,
      "Ġhava": 3944,
      "uh": 3945,
      "64": 3946,
      "larÄ±nÄ±zÄ±": 3947,
      "Ġhassasiyet": 3948,
      "Ġtab": 3949,
      "Ġiadesini": 3950,
      "dek": 3951,
      "ĠinanÄ±n": 3952,
      "oÅŁet": 3953,
      "OK": 3954,
      "asÄ±nÄ±n": 3955,
      "Ġnedenle": 3956,
      "fer": 3957,
      "ĠmÄ±ydÄ±": 3958,
      "set": 3959,
      "aÅŁÄ±k": 3960,
      "ĠdÃ¶nem": 3961,
      "ĠDur": 3962,
      "ĠKAR": 3963,
      "Ġpat": 3964,
      "veren": 3965,
      "indeki": 3966,
      "ĠarasÄ±": 3967,
      "ĠDekoratif": 3968,
      "Ġasistan": 3969,
      "arp": 3970,
      "Ä±lma": 3971,
      "ome": 3972,
      "Ġrenkler": 3973,
      "ĠseÃ§enek": 3974,
      "ĠkartÄ±": 3975,
      "ĠtutarÄ±": 3976,
      "ĠBoya": 3977,
      "ex": 3978,
      "bak": 3979,
      "ĠÃ¶lÃ§Ã¼sÃ¼": 3980,
      "±v": 3981,
      "Ä±v": 3982,
      "ower": 3983,
      "ĠCin": 3984,
      "dal": 3985,
      "ĠLacivert": 3986,
      "ĠHal": 3987,
      "Ġpek": 3988,
      "Ġpaz": 3989,
      "ly": 3990,
      "Ġperformans": 3991,
      "bette": 3992,
      "ĠakÅŁam": 3993,
      "ĠsaÄŁladÄ±m": 3994,
      "Ġkem": 3995,
      "Ġurunu": 3996,
      "Ġisten": 3997,
      "iko": 3998,
      "bis": 3999,
      "Ġengel": 4000,
      "Ġarama": 4001,
      "ĠsaÄŁlanÄ±r": 4002,
      "memnuniyet": 4003,
      "etik": 4004,
      "obil": 4005,
      "ehmet": 4006,
      "font": 4007,
      "Ã§asÄ±": 4008,
      "masÄ±na": 4009,
      "ĠQ": 4010,
      "Ġistersiniz": 4011,
      "Ġdiz": 4012,
      "ign": 4013,
      "Ã§Ä": 4014,
      "Ã§Ä±": 4015,
      "Hp": 4016,
      "Ġelinizde": 4017,
      "ĠyapÄ±lÄ±yor": 4018,
      "sadece": 4019,
      "ĠYÄ±k": 4020,
      "Ġelektr": 4021,
      "jpeg": 4022,
      "edek": 4023,
      "Ġherkes": 4024,
      "ĠDok": 4025,
      "Ġimkan": 4026,
      "odern": 4027,
      "endik": 4028,
      "ĠpaketlenmiÅŁ": 4029,
      "ĠKutu": 4030,
      "ĠâĢľ": 4031,
      "ladÄ±ÄŁÄ±nda": 4032,
      "ĠLed": 4033,
      "omp": 4034,
      "Ġptt": 4035,
      "ĠfirmamÄ±z": 4036,
      "Ã¼b": 4037,
      "ĠaÅŁamas": 4038,
      "gulama": 4039,
      "Ġkuru": 4040,
      "Ġkoyu": 4041,
      "Ġiler": 4042,
      "ĠAD": 4043,
      "Ġ120": 4044,
      "Ġyazar": 4045,
      "iber": 4046,
      "Ġhaft": 4047,
      "Ġuyar": 4048,
      "Fiyat": 4049,
      "ĠEm": 4050,
      "ĠYas": 4051,
      "63": 4052,
      "Ġgorun": 4053,
      "ĠalanÄ±ndan": 4054,
      "cd": 4055,
      "des": 4056,
      "Ġnedeni": 4057,
      "ĠÃ¼rÃ¼ndÃ¼r": 4058,
      "mur": 4059,
      "Ġmemnunum": 4060,
      "CE": 4061,
      "Ġolmay": 4062,
      "ĠResimli": 4063,
      "Ġmerve": 4064,
      "press": 4065,
      "go": 4066,
      "ĠGeniÅŁ": 4067,
      "Ġlist": 4068,
      "abileceÄŁiniz": 4069,
      "duÄŁu": 4070,
      "ĠCh": 4071,
      "ilidir": 4072,
      "atch": 4073,
      "KA": 4074,
      "vizyon": 4075,
      "ĠÃ§ekil": 4076,
      "lgili": 4077,
      "Ġbirde": 4078,
      "ĠsaÄŁlamak": 4079,
      "Ġetik": 4080,
      "Ġbozul": 4081,
      "ĠadÄ±m": 4082,
      "Ġadresinize": 4083,
      "th": 4084,
      "ĠettiÄŁiniz": 4085,
      "celiÄŁimiz": 4086,
      "OY": 4087,
      "eral": 4088,
      "Ġkenar": 4089,
      "Ġsizlerin": 4090,
      "umuz": 4091,
      "ĠKiÅŁ": 4092,
      "ess": 4093,
      "ĠiÃ§ine": 4094,
      "Ġ34": 4095,
      "Ġkop": 4096,
      "vas": 4097,
      ".</": 4098,
      "Ġyeri": 4099,
      "ĠSol": 4100,
      "ĠTaÅŁlÄ±": 4101,
      "nak": 4102,
      "±da": 4103,
      "Ä±da": 4104,
      "Ġresim": 4105,
      "aslan": 4106,
      "Ġ44": 4107,
      "DeÄŁerli": 4108,
      "hÄ±zlÄ±": 4109,
      "klf": 4110,
      "dey": 4111,
      "ĠÃ¼yelik": 4112,
      "Ġ'": 4113,
      "ternet": 4114,
      "Ġhareketsiz": 4115,
      "Ġtahmini": 4116,
      "Ġnazik": 4117,
      "ĠcÃ¼zdana": 4118,
      "lÃ¼ÄŁÃ¼": 4119,
      "eynep": 4120,
      "ĠgeÃ§er": 4121,
      "ĠedilmiÅŁtir": 4122,
      "ĠsatÄ±c": 4123,
      "67": 4124,
      "uyo": 4125,
      "ĠduyarÄ±m": 4126,
      "nÄ": 4127,
      "Ġonce": 4128,
      "nÄ±": 4129,
      "Ġsin": 4130,
      "Ġhatta": 4131,
      "Ġdolu": 4132,
      "ĠbiÅŁ": 4133,
      "Ġedilmedi": 4134,
      "ĠTipi": 4135,
      "ĠalacaÄŁÄ±m": 4136,
      "ĠfarkÄ": 4137,
      "siyah": 4138,
      "ĠfarkÄ±": 4139,
      "ĠKalÄ±p": 4140,
      "ĠBej": 4141,
      "Ġkalitesiz": 4142,
      "ĠTL": 4143,
      "ĠyatÄ±r": 4144,
      "62": 4145,
      "Ġbundan": 4146,
      "ĠaltÄ±": 4147,
      "ĠaktarÄ±": 4148,
      "Ġ65": 4149,
      "ĠCM": 4150,
      "sed": 4151,
      "sizler": 4152,
      "ĠfirmasÄ±na": 4153,
      "Ġnur": 4154,
      "ĠÄ°Ã§eriÄŁi": 4155,
      "ĠÃ¶m": 4156,
      "ĠkullanÄ±ma": 4157,
      "ahtar": 4158,
      "verengi": 4159,
      "AÅŀ": 4160,
      "Ġart": 4161,
      "sey": 4162,
      "ĠMor": 4163,
      "undayÄ±m": 4164,
      "Ä±cam": 4165,
      "ÃľRÃľN": 4166,
      "ĠyÃ¶nÃ¼nde": 4167,
      "ĠseÃ§eneÄŁi": 4168,
      "lerinden": 4169,
      "acaÄŁÄ": 4170,
      "acaÄŁÄ±": 4171,
      "kullan": 4172,
      "inizle": 4173,
      "tedarik": 4174,
      "ĠÃľretici": 4175,
      "aÅŁtÄ±r": 4176,
      "Ġmerak": 4177,
      "Ġkargonuz": 4178,
      "tum": 4179,
      "oft": 4180,
      "run": 4181,
      "ĠrahatsÄ±z": 4182,
      "Ġdedi": 4183,
      "Ġinan": 4184,
      "Ġkutusu": 4185,
      "lamak": 4186,
      "ĠkoÅŁ": 4187,
      "Ġyoktu": 4188,
      "ĠkullanÄ±lÄ±r": 4189,
      "ĠbakÄ±n": 4190,
      "ĠMon": 4191,
      "ĠKitap": 4192,
      "iÅŁÃ¶rt": 4193,
      "ĠTÃ¼rÃ¼": 4194,
      "ooth": 4195,
      "Ġredded": 4196,
      "ĠkapalÄ±": 4197,
      "Ġayni": 4198,
      "ĠkÄ±y": 4199,
      "ĠsonladÄ±ÄŁÄ±nda": 4200,
      "sb": 4201,
      "img": 4202,
      "ĠSak": 4203,
      "Ġberi": 4204,
      "ĠSeri": 4205,
      "ĠtÃ¼y": 4206,
      "kupon": 4207,
      "iti": 4208,
      "Ġetti": 4209,
      "DIR": 4210,
      "memiz": 4211,
      "ĠoÄŁ": 4212,
      "Ġboya": 4213,
      "ÃľR": 4214,
      "Ġdokusu": 4215,
      "rasÄ±": 4216,
      "seli": 4217,
      "ĠsipariÅŁinizin": 4218,
      "Lg": 4219,
      "ĠkullanÄ±mÄ±": 4220,
      "ĠhatasÄ±": 4221,
      "val": 4222,
      "57": 4223,
      "Ġsonunda": 4224,
      "Ġbot": 4225,
      "cam": 4226,
      "dasÄ±": 4227,
      "Ġkot": 4228,
      "ĠYÃ¼kseklik": 4229,
      "Ã¼le": 4230,
      "ĠSaygÄ±larÄ±mÄ±zla": 4231,
      "ĠverilmiÅŁ": 4232,
      "rilik": 4233,
      "ĠÃ§eÅŁ": 4234,
      "Ġ27": 4235,
      "Ġverilecek": 4236,
      "adil": 4237,
      "KÄ±z": 4238,
      "ĠyanÄ±nda": 4239,
      "gar": 4240,
      "INIZ": 4241,
      "ĠFiltr": 4242,
      "amay": 4243,
      "Ġhepsi": 4244,
      "ĠdÃ¼ÄŁ": 4245,
      "ĠuÃ§": 4246,
      "fir": 4247,
      "ĠsÃ¼reÃ§te": 4248,
      "69": 4249,
      "siparis": 4250,
      "Ġ978": 4251,
      "Ġted": 4252,
      "ĠolmadÄ±ÄŁÄ±nÄ±": 4253,
      "Ġaciliyet": 4254,
      "ĠalÄ±yorum": 4255,
      "itam": 4256,
      "ĠTemiz": 4257,
      "ĠMÃ¼ÅŁt": 4258,
      "ĠalÄ±p": 4259,
      "ret": 4260,
      "umuÅŁak": 4261,
      "Ġlu": 4262,
      "erÃ§ekten": 4263,
      "Ġparam": 4264,
      "ĠGaranti": 4265,
      "ĠgÃ¶rÃ¼nmÃ¼yor": 4266,
      "Ġsey": 4267,
      "omuz": 4268,
      "87": 4269,
      "ĠsaÄŁlÄ±yor": 4270,
      "Ġyapmam": 4271,
      "ps": 4272,
      "Ġgunler": 4273,
      "abuk": 4274,
      "ĠMet": 4275,
      "Ġkere": 4276,
      "ĠrahatlÄ±kla": 4277,
      "Gen": 4278,
      "madÄ±m": 4279,
      "Ġortalama": 4280,
      "ĠgÃ¶steriyor": 4281,
      "Ġfermu": 4282,
      "Ġkoruyucu": 4283,
      "ĠahÅŁap": 4284,
      "Ġtamamlan": 4285,
      "ĠgÃ¼ncelleme": 4286,
      "Ġboyutu": 4287,
      "isim": 4288,
      "ĠyeÅŁil": 4289,
      "Ġdin": 4290,
      "Evet": 4291,
      "gn": 4292,
      "ĠmaÄŁaza": 4293,
      "ĠÃ§anta": 4294,
      "ĠyapÄ±ÅŁtÄ±r": 4295,
      "84": 4296,
      "ĠsÃ¼per": 4297,
      "Ġyapacak": 4298,
      "ĠtakÄ±mÄ±": 4299,
      "anket": 4300,
      "Ġ2016": 4301,
      "ĠyapÄ±lacaktÄ±r": 4302,
      "Ġ00": 4303,
      "miÅŁtir": 4304,
      "Ġdesen": 4305,
      "diÄŁinde": 4306,
      "Ġmuy": 4307,
      "bugÃ¼n": 4308,
      "ĠcÃ¼zdanÄ±m": 4309,
      "Ġyerde": 4310,
      "Ġfayd": 4311,
      "89": 4312,
      "ĠtÃ¼r": 4313,
      "ĠaynÄ±sÄ±": 4314,
      "Ġtabii": 4315,
      "esil": 4316,
      "Ġelde": 4317,
      "Tek": 4318,
      "ĠDetaylÄ±": 4319,
      "ea": 4320,
      "kal": 4321,
      "larÄ±nÄ±n": 4322,
      "Tam": 4323,
      "bo": 4324,
      "ĠCep": 4325,
      "Ġsms": 4326,
      "Ġduvar": 4327,
      "telefon": 4328,
      "ĠhayÄ±r": 4329,
      "Ġsap": 4330,
      "onor": 4331,
      "Ġinceleme": 4332,
      "ĠyÃ¼kleme": 4333,
      "As": 4334,
      "Ġdk": 4335,
      "ĠsÄ±ÄŁÄ±n": 4336,
      "Ġkahve": 4337,
      "Ġsonuc": 4338,
      "ebir": 4339,
      "ĠKes": 4340,
      "Ġsabah": 4341,
      "uvarlak": 4342,
      "Ġsipar": 4343,
      "ĠfiÅŁ": 4344,
      "ĠsarÄ±": 4345,
      "ĠAdaptÃ¶r": 4346,
      "ĠkartÄ±ma": 4347,
      "Ġalacak": 4348,
      "Rengi": 4349,
      "Gayet": 4350,
      "ĠKaÄŁÄ±t": 4351,
      "61": 4352,
      "Ġvb": 4353,
      "ĠKut": 4354,
      "Ġhic": 4355,
      "kil": 4356,
      "END": 4357,
      "gÃ¼l": 4358,
      "ĠMalzeme": 4359,
      "ĠsipariÅŁimi": 4360,
      "ĠStand": 4361,
      "leyen": 4362,
      "ĠalmanÄ±zÄ±": 4363,
      "Ġverilen": 4364,
      "Ġoyn": 4365,
      "Ã¼pÃ¼r": 4366,
      "ĠAY": 4367,
      "ĠdaÄŁÄ±": 4368,
      "ĠgeÃ§ti": 4369,
      "isay": 4370,
      "allah": 4371,
      "Ġyere": 4372,
      "ĠtuÅŁ": 4373,
      "ĠolmasÄ±nÄ±": 4374,
      "ĠkaldÄ±": 4375,
      "ĠÃ¼rÃ¼nÃ¼nÃ¼zÃ¼n": 4376,
      "sev": 4377,
      "Ġverebilirsiniz": 4378,
      "ĠUn": 4379,
      "ĠBÃ¼yÃ¼k": 4380,
      "tem": 4381,
      "boy": 4382,
      "ĠhazÄ±rlanÄ±yor": 4383,
      "ucak": 4384,
      "ĠalamadÄ±ÄŁÄ±m": 4385,
      "ĠÄ°ade": 4386,
      "ĠVol": 4387,
      "geri": 4388,
      "Ġmehmet": 4389,
      "ĠgeÃ§erek": 4390,
      "Ġkesim": 4391,
      "ĠpaylaÅŁabilir": 4392,
      "Ġ72": 4393,
      "DER": 4394,
      "Ġunut": 4395,
      "ĠpiÅŁ": 4396,
      "ĠDE": 4397,
      "ĠUY": 4398,
      "Ã¼ÅŁra": 4399,
      "ĠaskÄ±": 4400,
      "lek": 4401,
      "etooth": 4402,
      "ĠKalite": 4403,
      "Ġebat": 4404,
      "Ġyolda": 4405,
      "Ġkoku": 4406,
      "fiyat": 4407,
      "lÃ¼yor": 4408,
      "ĠyaÅŁam": 4409,
      "Ġyola": 4410,
      "Ġcen": 4411,
      "ĠAyrÄ±ca": 4412,
      "hat": 4413,
      "Ġkit": 4414,
      "----------------": 4415,
      "kk": 4416,
      "Beyaz": 4417,
      "Ġboyun": 4418,
      "UT": 4419,
      "ĠMakin": 4420,
      "ĠalmayÄ±n": 4421,
      "ealme": 4422,
      "ult": 4423,
      "lerle": 4424,
      "Ġdon": 4425,
      "Ä°P": 4426,
      "ĠkaldÄ±r": 4427,
      "stanbul": 4428,
      "amak": 4429,
      "Ġ32": 4430,
      "Boy": 4431,
      "Ġhanesini": 4432,
      "peri": 4433,
      "larÄ±ndan": 4434,
      "ĠYaÄŁ": 4435,
      "Ġbat": 4436,
      "eyit": 4437,
      "ĠPantolon": 4438,
      "ĠmaÄŁduriyet": 4439,
      "ĠpoÅŁet": 4440,
      "ĠgÃ¼zeldi": 4441,
      "ie": 4442,
      "Ġanketime": 4443,
      "ĠgÃ¶nderilmiÅŁ": 4444,
      "Ġpaketlen": 4445,
      "ĠPil": 4446,
      ".)": 4447,
      "Ä°LÄ°R": 4448,
      "va": 4449,
      "ĠulaÅŁtÄ±ÄŁ": 4450,
      "Ġfot": 4451,
      "align": 4452,
      "unuza": 4453,
      "ĠSaÃ§": 4454,
      "Ġnem": 4455,
      "ĠbeÄŁenmedim": 4456,
      "ĠÅŁirket": 4457,
      "ĠdikiÅŁ": 4458,
      "ĠÅŁiÅŁ": 4459,
      "tin": 4460,
      "ÅŁimdi": 4461,
      "ĠverdiÄŁiniz": 4462,
      "ĠileteceÄŁim": 4463,
      "ĠaltÄ±na": 4464,
      "farklÄ±": 4465,
      "ĠsatÄ±ÅŁa": 4466,
      "ĠvermiÅŁtim": 4467,
      "ĠsaÄŁlayacak": 4468,
      "Paket": 4469,
      "kargom": 4470,
      "ĠkÄ±ÅŁ": 4471,
      "ĠKalem": 4472,
      "bin": 4473,
      "orn": 4474,
      "Ġdemek": 4475,
      "ĠDÃ¼z": 4476,
      "Ġyararlan": 4477,
      "ĠKaz": 4478,
      "ĠayrÄ±l": 4479,
      "imizde": 4480,
      "Ġelif": 4481,
      "enye": 4482,
      "Ġbilmiyorum": 4483,
      "Ġsefer": 4484,
      "ĠgÃ¶nderildi": 4485,
      "ĠSonrasÄ±": 4486,
      "cem": 4487,
      "Mer": 4488,
      "ĠSun": 4489,
      "cc": 4490,
      "Ġ250": 4491,
      "kadÄ±n": 4492,
      "ekan": 4493,
      "ĠÃ§Ä±kan": 4494,
      "fendim": 4495,
      "ĠAleti": 4496,
      "ĠFÄ±r": 4497,
      "ĠsaÄŁlanmÄ±ÅŁ": 4498,
      "ordo": 4499,
      "04": 4500,
      "Ġnormalde": 4501,
      "Ġaksi": 4502,
      "ĠgÃ¶nderilm": 4503,
      "TE": 4504,
      "tÃ¼m": 4505,
      "Ġincelen": 4506,
      "Ġbegendim": 4507,
      "bb": 4508,
      "ĠalÄ±cÄ±": 4509,
      "ĠsoÄŁ": 4510,
      "elli": 4511,
      "ĠdaÄŁÄ±t": 4512,
      "Ġgitti": 4513,
      "Ġfirmam": 4514,
      "Ġsel": 4515,
      "ava": 4516,
      "ĠSil": 4517,
      "xl": 4518,
      "layarak": 4519,
      "Ġdenem": 4520,
      "Ġprovizyon": 4521,
      "ĠFull": 4522,
      "Ġyor": 4523,
      "001": 4524,
      "ĠvereceÄŁim": 4525,
      "ulum": 4526,
      "rop": 4527,
      "82": 4528,
      "09": 4529,
      "sizlerden": 4530,
      "Ġkullanmak": 4531,
      "81": 4532,
      "sman": 4533,
      "tex": 4534,
      "Ġetmiyorum": 4535,
      "ĠAR": 4536,
      "ĠaraÅŁtÄ±r": 4537,
      "ĠgeldiÄŁi": 4538,
      "cuk": 4539,
      "ĠEd": 4540,
      "ĠÃĩiÃ§ek": 4541,
      "ĠyaptÄ±": 4542,
      "ĠgÃ¶nderebilir": 4543,
      "ĠbankanÄ±za": 4544,
      "ĠgÃ¶rÃ¼l": 4545,
      "remium": 4546,
      "eryal": 4547,
      "07": 4548,
      "Ġ2017": 4549,
      "Ġverebilir": 4550,
      "Ä±lt": 4551,
      "ĠgÃ¼neÅŁ": 4552,
      "Ġlira": 4553,
      "ĠulaÅŁtÄ±ktan": 4554,
      "UZ": 4555,
      "evi": 4556,
      "Ġvakt": 4557,
      "Ġplanda": 4558,
      "AG": 4559,
      "ehir": 4560,
      "ĠaralÄ±": 4561,
      "adir": 4562,
      "IÅŀ": 4563,
      "ĠBileklik": 4564,
      "Ä±yorsunuz": 4565,
      "ĠtasarÄ±mÄ±": 4566,
      "mus": 4567,
      "ĠgÃ¼venlik": 4568,
      "mamasÄ±": 4569,
      "metik": 4570,
      "ĠolmasÄ±na": 4571,
      "ice": 4572,
      "ĠolacaÄŁÄ±z": 4573,
      "ĠOL": 4574,
      "ĠbulunmamaktadÄ±r": 4575,
      "ucuk": 4576,
      "Kal": 4577,
      "avaÅŁ": 4578,
      "deÅŁ": 4579,
      "Ġmel": 4580,
      "Or": 4581,
      "asper": 4582,
      "rof": 4583,
      "Ġsebeple": 4584,
      "ĠgÃ¶ÄŁÃ¼s": 4585,
      "Ġgelmiyor": 4586,
      "Ä±nt": 4587,
      "Ġsevdiklerinize": 4588,
      "Ġtemsilc": 4589,
      "ĠÅŁÃ¼pheniz": 4590,
      "ĠPer": 4591,
      "ĠgÃ¶rselini": 4592,
      "sipariÅŁlerim": 4593,
      "Marka": 4594,
      "ĠfaturasÄ±": 4595,
      "ozmetik": 4596,
      "Ġverilmedi": 4597,
      "Ġsistemde": 4598,
      "Ġham": 4599,
      "ĠsÄ±ÄŁÄ±narak": 4600,
      "Ġalmam": 4601,
      "ĠbirÅŁey": 4602,
      "Sony": 4603,
      "laÅŁtÄ±r": 4604,
      "eÅŁke": 4605,
      "inizden": 4606,
      "Ġolabiliyor": 4607,
      "Ġbilgilerinizi": 4608,
      "our": 4609,
      "ĠgÃ¼ncellen": 4610,
      "nur": 4611,
      "aydÄ±n": 4612,
      "Ġistin": 4613,
      "ĠKordon": 4614,
      "Ġoldug": 4615,
      "ĠaralÄ±k": 4616,
      "Ġkalem": 4617,
      "ĠgÃ¼nlerde": 4618,
      "ĠSÄ±nÄ±f": 4619,
      "kart": 4620,
      "ĠÃĩelik": 4621,
      "versize": 4622,
      "alÄ±bÄ±": 4623,
      "kap": 4624,
      "ĠkÄ±lÄ±fÄ±dÄ±r": 4625,
      "Ġdoldur": 4626,
      "ĠkulaklÄ±k": 4627,
      "Ġdirekt": 4628,
      "dd": 4629,
      "ĠbeÄŁendi": 4630,
      "ĠuzunluÄŁu": 4631,
      "ĠulaÅŁÄ±r": 4632,
      "manÄ±n": 4633,
      "Ġdarb": 4634,
      "peria": 4635,
      "Ġistinaden": 4636,
      "Ġaksesuar": 4637,
      "ĠÃ¼stÃ¼nde": 4638,
      "kinci": 4639,
      "ĠdoÄŁrul": 4640,
      "Ä±llÄ±": 4641,
      "Ġann": 4642,
      "Ġcuzdan": 4643,
      "ĠbaÅŁlatÄ±yorum": 4644,
      "isel": 4645,
      "mw": 4646,
      "ĠaktarÄ±lacak": 4647,
      "abilmem": 4648,
      "oster": 4649,
      "Ġmust": 4650,
      "ĠReno": 4651,
      "Ġ37": 4652,
      "memiÅŁ": 4653,
      "ampuan": 4654,
      "Ġyur": 4655,
      "ĠÃ¶mÃ¼rlÃ¼": 4656,
      "ĠgÃ¶rÃ¼ntÃ¼ley": 4657,
      "Ġitibar": 4658,
      "eksik": 4659,
      "ĠkullanÄ±cÄ±": 4660,
      "Ġalarak": 4661,
      "ĠBan": 4662,
      "abiliriz": 4663,
      "ĠÃĩerÃ§ev": 4664,
      "Ġtanesi": 4665,
      "Ġteknik": 4666,
      "Cok": 4667,
      "lack": 4668,
      "diÄŁer": 4669,
      "Ġhaber": 4670,
      "emem": 4671,
      "ĠsonlandÄ±rmak": 4672,
      "tÃ¼sÃ¼": 4673,
      "ĠBay": 4674,
      "Tr": 4675,
      "ila": 4676,
      "Kar": 4677,
      "ĠkatÄ±l": 4678,
      "yaÅŁanan": 4679,
      "lamÄ±ÅŁ": 4680,
      "Ġkeyifli": 4681,
      "day": 4682,
      "kÄ": 4683,
      "kÄ±": 4684,
      "Ŀ¤": 4685,
      "vde": 4686,
      "ĠAksesuar": 4687,
      "ĠkonuÅŁ": 4688,
      "ĠIp": 4689,
      "ĠMl": 4690,
      "Ġyaparak": 4691,
      "ĠIs": 4692,
      "Ġuzak": 4693,
      "Ġ300": 4694,
      "yim": 4695,
      "ĠSal": 4696,
      "Ġgoz": 4697,
      "lass": 4698,
      "ĠLi": 4699,
      "ĠBul": 4700,
      "arÅŁ": 4701,
      "hay": 4702,
      "ĠteÅŁ": 4703,
      "ganik": 4704,
      "ĠaÃ§Ä±sÄ±ndan": 4705,
      "Ġkum": 4706,
      "dÃ¼n": 4707,
      "ĠSor": 4708,
      "ĠgeÃ§ireceÄŁiniz": 4709,
      "estel": 4710,
      "ĠKullanÄ±m": 4711,
      "ĠOje": 4712,
      "ĠmÃ¼da": 4713,
      "yap": 4714,
      "Ġ925": 4715,
      "gon": 4716,
      "ĠgeÃ§miÅŁ": 4717,
      "ĠBot": 4718,
      "ĠARA": 4719,
      "ĠYazar": 4720,
      "ĠADET": 4721,
      "ĠOn": 4722,
      "ĠvÃ¼": 4723,
      "lardÄ±r": 4724,
      "ĠElektr": 4725,
      "ĠbiÅŁey": 4726,
      "ĠdaÄŁÄ±tÄ±ma": 4727,
      "Ġolucak": 4728,
      "Ġhayat": 4729,
      "Ġimal": 4730,
      "ĠSe": 4731,
      "ĠEÄŁ": 4732,
      "esinden": 4733,
      "ĠgÃ¶nderilir": 4734,
      "ĠÄ°ÃĩÄ°N": 4735,
      "omik": 4736,
      "din": 4737,
      "Ġsizinle": 4738,
      "ĠbeklediÄŁim": 4739,
      "bank": 4740,
      "madÄ±ÄŁÄ±": 4741,
      "Ġbakiy": 4742,
      "nat": 4743,
      "ĠBasÄ±m": 4744,
      "kr": 4745,
      "ĠKit": 4746,
      "mark": 4747,
      "ĠGÃ¶mlek": 4748,
      "umun": 4749,
      "Ġsilin": 4750,
      "ĠÃ§elik": 4751,
      "ilmi": 4752,
      "ĠGÃ¼": 4753,
      "ĠdÃ¼zelt": 4754,
      "ĠteslimatÄ±": 4755,
      "ven": 4756,
      "Ġsevk": 4757,
      "ĠyapÄ±lmasÄ±": 4758,
      "ijital": 4759,
      "Ġresimdeki": 4760,
      "med": 4761,
      "kol": 4762,
      "eferans": 4763,
      "Ġoz": 4764,
      "ĠPrime": 4765,
      "ĠhatÄ±r": 4766,
      "Ä±rnak": 4767,
      "ĠyansÄ±y": 4768,
      "resim": 4769,
      "Ġmng": 4770,
      "ĠaÅŁamasÄ±nda": 4771,
      "ME": 4772,
      "ĠmÃ¼ÅŁterilerimize": 4773,
      "Ġ85": 4774,
      "Ġelimden": 4775,
      "kay": 4776,
      "pit": 4777,
      "ĠtÃ¼ketici": 4778,
      "ĠAraba": 4779,
      "dÄ±ÄŁÄ±nÄ±zda": 4780,
      "aker": 4781,
      "AV": 4782,
      "Sh": 4783,
      "Ġufak": 4784,
      "ĠayÄ±r": 4785,
      "Ġmontaj": 4786,
      "Ġbuyuk": 4787,
      "Ġihtim": 4788,
      "Ġku": 4789,
      "ĠFit": 4790,
      "lin": 4791,
      "sak": 4792,
      "Ġgarantisi": 4793,
      "ĠHay": 4794,
      "ĠÃ¶zellikle": 4795,
      "Ġvaz": 4796,
      "ĠhesabÄ": 4797,
      "ĠhesabÄ±": 4798,
      "enler": 4799,
      "ĠMot": 4800,
      "Ġvaktinizi": 4801,
      "ĠKÃ¼pe": 4802,
      "ĠTab": 4803,
      "yasÄ±": 4804,
      "ĠgÃ¶rÃ¼ÅŁmesi": 4805,
      "acaÄŁÄ±nÄ±z": 4806,
      "adÄ±": 4807,
      "ĠUsb": 4808,
      "paratÄ±": 4809,
      "konu": 4810,
      "sÃ¼r": 4811,
      "Ġihtiyac": 4812,
      "ĠbakÄ±m": 4813,
      "layan": 4814,
      "ĠalmanÄ±z": 4815,
      "ĠÃĩev": 4816,
      "Ġdirek": 4817,
      "ĠyapÄ±lmÄ±ÅŁtÄ±r": 4818,
      "AC": 4819,
      "ĠalÄ±nabilir": 4820,
      "Ġkargoyu": 4821,
      "dr": 4822,
      "isin": 4823,
      "ĠTuruncu": 4824,
      "Uy": 4825,
      "ĠyansÄ±": 4826,
      "ĠBaÄŁ": 4827,
      "eker": 4828,
      "sm": 4829,
      "alarda": 4830,
      "ike": 4831,
      "akkabÄ±sÄ±": 4832,
      "Ġbant": 4833,
      "ĠKem": 4834,
      "ĠYayÄ±nlarÄ±": 4835,
      "illa": 4836,
      "iba": 4837,
      "Ġgidiyor": 4838,
      "2022": 4839,
      "yaj": 4840,
      "vis": 4841,
      "ĠÃĸN": 4842,
      "ĠÃľrÃ¼nÃ¼": 4843,
      "ock": 4844,
      "ĠsaÄŁlama": 4845,
      "Ġbag": 4846,
      "isayar": 4847,
      "paket": 4848,
      "okusu": 4849,
      "ĠÃ¼rÃ¼nleriniz": 4850,
      "ĠYÄ±lÄ±": 4851,
      "Ġolmadan": 4852,
      "sÃ¼z": 4853,
      "ĠÃ§alÄ±ÅŁma": 4854,
      "Ġbirebir": 4855,
      "ĠbÃ¼y": 4856,
      "KumaÅŁÄ±": 4857,
      "bel": 4858,
      "ledim": 4859,
      "ĠÃ¶zenli": 4860,
      "uzz": 4861,
      "Ġ160": 4862,
      "Ġez": 4863,
      "ĠDol": 4864,
      "Ã¶zÃ¼m": 4865,
      "ĠyÃ¼klem": 4866,
      "ankete": 4867,
      "ĠalmalÄ±yÄ±m": 4868,
      "mrb": 4869,
      "pa": 4870,
      "Ġ08": 4871,
      "ĠtuÄŁ": 4872,
      "Ġkolye": 4873,
      "Ġsabit": 4874,
      "ahar": 4875,
      "ĠbebeÄŁ": 4876,
      "ĠetmiÅŁ": 4877,
      "ĠKÃ¶pek": 4878,
      "isiklet": 4879,
      "lerinin": 4880,
      "Ġsonraki": 4881,
      "ĠyapacaÄŁÄ±m": 4882,
      "mayÄ±nÄ±z": 4883,
      "Ġmat": 4884,
      "Ġmetre": 4885,
      "ĠMou": 4886,
      "ĠkoÅŁul": 4887,
      "ĠBran": 4888,
      "Ġyaka": 4889,
      "Ġmutluluk": 4890,
      "300": 4891,
      "Ġkargolar": 4892,
      "Ġsi": 4893,
      "ĠÃ§Ã¶zÃ¼l": 4894,
      "ĠyÃ¼klen": 4895,
      "GO": 4896,
      "ĠÅŁans": 4897,
      "ĠÅŁif": 4898,
      "ĠsaÄŁolun": 4899,
      "ozet": 4900,
      "ĠÃĩanta": 4901,
      "esinin": 4902,
      "tre": 4903,
      "ĠÃ¼cretsiz": 4904,
      "Ġkontrollerimi": 4905,
      "taleb": 4906,
      "ĠmÃ¼dahal": 4907,
      "bay": 4908,
      "Ġrapor": 4909,
      "iÄŁini": 4910,
      "cil": 4911,
      "zi": 4912,
      "ĠMas": 4913,
      "ĠAd": 4914,
      "ĠgÃ¶rseli": 4915,
      "AD": 4916,
      "ĠTutucu": 4917,
      "Ġcalis": 4918,
      "ĠdÃ¼ÅŁÃ¼k": 4919,
      "'t": 4920,
      "ĠAÄŁÄ±rlÄ±k": 4921,
      "ĠEt": 4922,
      "mÄ±ÅŁtÄ±m": 4923,
      "Ġdam": 4924,
      "pel": 4925,
      "Ġmag": 4926,
      "Ġburad": 4927,
      "ĠsaÄŁlanÄ±yor": 4928,
      "lon": 4929,
      "ĠSaati": 4930,
      "ĠIÃ§i": 4931,
      "ĠamaÃ§lÄ±": 4932,
      "Ġkaybet": 4933,
      "ĠÃ¶zellik": 4934,
      "ĠtÃ¼rlÃ¼": 4935,
      "uru": 4936,
      "ĠkapÄ": 4937,
      "ĠkapÄ±": 4938,
      "yasal": 4939,
      "ĠHediy": 4940,
      "ĠsipariÅŁlerim": 4941,
      "artesi": 4942,
      "ediye": 4943,
      "aslanmaz": 4944,
      "ĠPan": 4945,
      "ish": 4946,
      "eddÃ¼": 4947,
      "Ġdurdu": 4948,
      "Ġkurut": 4949,
      "ĠhesabÄ±ma": 4950,
      "ĠMut": 4951,
      "ĠaldÄ±": 4952,
      "2020": 4953,
      "Ġ29": 4954,
      "Ġbasit": 4955,
      "Ġhemde": 4956,
      "ĠBoyu": 4957,
      "ĠgÃ¶nderir": 4958,
      "emesi": 4959,
      "isk": 4960,
      "ĠSab": 4961,
      "ĠXperia": 4962,
      "amik": 4963,
      "aby": 4964,
      "aw": 4965,
      "Ġdurumlarda": 4966,
      "ĠfirmalarÄ": 4967,
      "ĠfirmalarÄ±": 4968,
      "ĠEr": 4969,
      "ĠSat": 4970,
      "ĠarkadaÅŁlarÄ±m": 4971,
      "Vol": 4972,
      "ĠAb": 4973,
      "Ġetmiyor": 4974,
      "oÄŁru": 4975,
      "ĠÃľretim": 4976,
      "ĠThe": 4977,
      "ĠManken": 4978,
      "Ġadresinizi": 4979,
      "ĠHarf": 4980,
      "Ġdog": 4981,
      "Ġcenter": 4982,
      ":)": 4983,
      "ĠeÄŁlen": 4984,
      "ĠkÄ±saca": 4985,
      "Casper": 4986,
      "Ġ360": 4987,
      "eyle": 4988,
      "Ġyoluyla": 4989,
      "Ġbenz": 4990,
      "azÄ": 4991,
      "azÄ±": 4992,
      "KÄ±r": 4993,
      "inÃ§": 4994,
      "baÅŁka": 4995,
      "inci": 4996,
      "ĠÃĩÄ±k": 4997,
      "Ġkazak": 4998,
      "Ġkargolama": 4999,
      "ĠMik": 5000,
      "ĠiletilmiÅŁ": 5001,
      "tesekkurler": 5002,
      "imizden": 5003,
      "Ġkodunu": 5004,
      "ilme": 5005,
      "emiyor": 5006,
      "mistim": 5007,
      "ĠStok": 5008,
      "ug": 5009,
      "ĠÃ§izik": 5010,
      "text": 5011,
      "kontrollerimi": 5012,
      "Ã¼me": 5013,
      "ĠhesabÄ±nÄ±zda": 5014,
      "ĠmuhteÅŁem": 5015,
      "amiyorum": 5016,
      "ginize": 5017,
      "Ġbaska": 5018,
      "ilmemiÅŁ": 5019,
      "ĠyansÄ±t": 5020,
      "Ġzeynep": 5021,
      "KS": 5022,
      "nin": 5023,
      "onay": 5024,
      "âĢ¢": 5025,
      "ĠolanÄ": 5026,
      "ĠolanÄ±": 5027,
      "ĠPolyester": 5028,
      "Ġkalan": 5029,
      "acaÄŁÄ±nÄ±": 5030,
      "Ġbugun": 5031,
      "bende": 5032,
      "Ä±rken": 5033,
      "ĠkaÅŁ": 5034,
      "inlik": 5035,
      "OS": 5036,
      "rik": 5037,
      "ĠkullanÄ±lan": 5038,
      "ĠgeÃ§en": 5039,
      "ALI": 5040,
      "sepet": 5041,
      "ĠkiÅŁiye": 5042,
      "ĠNumar": 5043,
      "ault": 5044,
      "Ġ02": 5045,
      "Ġverebilmek": 5046,
      "Ġsekilde": 5047,
      "oncuk": 5048,
      "ĠÃ§Ä±kmadÄ±": 5049,
      "Ġalis": 5050,
      "âĢ¦": 5051,
      "ĠSoru": 5052,
      "Ġderecede": 5053,
      "ĠVia": 5054,
      "co": 5055,
      "sp": 5056,
      "imizi": 5057,
      "hiÃ§": 5058,
      "asÄ±z": 5059,
      "Ġteyit": 5060,
      "Ġveriyorum": 5061,
      "ĠsonlanacaktÄ±r": 5062,
      "ĠdÃ¼zen": 5063,
      "ĠyapÄ±ldÄ±": 5064,
      "uzzle": 5065,
      "Ġboyum": 5066,
      "Ġzarif": 5067,
      "ĠGÃ¼nlÃ¼k": 5068,
      "ĠbaÅŁlÄ±ÄŁ": 5069,
      "Ġveremiyorum": 5070,
      "ĠseÃ§eneÄŁ": 5071,
      "Ġmemnuniyeti": 5072,
      "ilmez": 5073,
      "iÅŁli": 5074,
      "agen": 5075,
      "ĠÄ°Ã§in": 5076,
      ";\"><": 5077,
      "zz": 5078,
      "ĠkiÅŁi": 5079,
      "Ġmen": 5080,
      "ularÄ±": 5081,
      "En": 5082,
      "ĠÃ¶nceliÄŁimiz": 5083,
      "Ã¶l": 5084,
      "Ġkendim": 5085,
      "ĠBÄ°R": 5086,
      "rey": 5087,
      "Ã¼mÃ¼": 5088,
      "Ġedicem": 5089,
      "ĠKapaÄŁÄ±": 5090,
      "ĠSadece": 5091,
      "ezon": 5092,
      "dol": 5093,
      "eda": 5094,
      "Ġof": 5095,
      "ĠesnasÄ±nda": 5096,
      "ĠSmart": 5097,
      "Ä±knat": 5098,
      "ĠgÃ¶nÃ¼l": 5099,
      "eddÃ¼t": 5100,
      "celi": 5101,
      "Vestel": 5102,
      "yet": 5103,
      "uf": 5104,
      "ida": 5105,
      "ear": 5106,
      "Ġilginiz": 5107,
      "Ġmont": 5108,
      "ĠÅŁekil": 5109,
      "kÄ±sa": 5110,
      "Ġyedek": 5111,
      "Ġgelmesi": 5112,
      "www": 5113,
      "Ġsebebiyle": 5114,
      "Realme": 5115,
      "ĠkullandÄ±m": 5116,
      "ĠaldÄ±ktan": 5117,
      "kg": 5118,
      "ĠÃ¼stÃ¼": 5119,
      "ĠkullandÄ±ÄŁÄ±m": 5120,
      "var": 5121,
      "ĠdurumundayÄ±m": 5122,
      "ĠKalp": 5123,
      "orsel": 5124,
      "ĠKrem": 5125,
      "meyen": 5126,
      "XL": 5127,
      "ĠMÃ¼ÅŁterimiz": 5128,
      "afaza": 5129,
      "ean": 5130,
      "120": 5131,
      "Ġail": 5132,
      "ĠGÃ¼neÅŁ": 5133,
      "Ġyum": 5134,
      "ĠMasa": 5135,
      "mesine": 5136,
      "eceÄŁini": 5137,
      "±cak": 5138,
      "Ä±cak": 5139,
      "ĠBr": 5140,
      "ĠREN": 5141,
      "tah": 5142,
      "ĠMateryal": 5143,
      "Ġgiz": 5144,
      "ĠYumuÅŁak": 5145,
      "MER": 5146,
      "Ġ39": 5147,
      "adife": 5148,
      "ninizle": 5149,
      "ĠÃ¼rÃ¼nle": 5150,
      "ĠYAP": 5151,
      "ĠgÃ¶mlek": 5152,
      "Ä±sÄ±nÄ±": 5153,
      "oyla": 5154,
      "liyorum": 5155,
      "Ġyolu": 5156,
      "Ġkurulum": 5157,
      "Ġdolap": 5158,
      "cedes": 5159,
      "ĠLo": 5160,
      "Ġexpress": 5161,
      "ĠsÄ±fÄ±r": 5162,
      "Ġfatma": 5163,
      "urat": 5164,
      "erkek": 5165,
      "ĠAyak": 5166,
      "ĠVer": 5167,
      "oco": 5168,
      "Ġhazir": 5169,
      "Her": 5170,
      "ĠBoyut": 5171,
      "Ġtespit": 5172,
      "ĠkarÄ±ÅŁÄ±k": 5173,
      "ĠuyarÄ±": 5174,
      "),": 5175,
      "Ġfiltr": 5176,
      "Ġettik": 5177,
      "ĠgÃ¶rev": 5178,
      "tÄ±ÄŁÄ±nÄ±z": 5179,
      "Ġburdan": 5180,
      "ĠGeÃ§": 5181,
      "Ġbuton": 5182,
      "abilmektedir": 5183,
      "gÃ¶rsel": 5184,
      "ĠDaha": 5185,
      "tion": 5186,
      "eceksiniz": 5187,
      "Ġbilginiz": 5188,
      "Ġuygulam": 5189,
      "ux": 5190,
      "Ġedilebilir": 5191,
      "fes": 5192,
      "150": 5193,
      "ĠdÃ¶kÃ¼l": 5194,
      "tm": 5195,
      "ĠarasÄ±ndaki": 5196,
      "ĠyapamÄ±yorum": 5197,
      "dev": 5198,
      "Ġizin": 5199,
      "Ġastar": 5200,
      "ĠgereÄŁi": 5201,
      "ĠmaÄŁazamÄ±z": 5202,
      "Ġetmeyin": 5203,
      "Ġesra": 5204,
      "Ġey": 5205,
      "Ġform": 5206,
      "Ġ110": 5207,
      "gÃ¼lÃ¼": 5208,
      "Ġdokun": 5209,
      "ĠCo": 5210,
      "Ġgelmez": 5211,
      "irkon": 5212,
      "ĠDÃ¶n": 5213,
      "ijyen": 5214,
      "ĠCihazÄ": 5215,
      "ĠCihazÄ±": 5216,
      "Ġust": 5217,
      "keti": 5218,
      "Ġzincir": 5219,
      "Ġsorular": 5220,
      "ĠYak": 5221,
      "ĠsaÄŁlayamÄ±yoruz": 5222,
      "ĠTon": 5223,
      "Ġdimi": 5224,
      "ĠÃľrÃ¼nÃ¼mÃ¼z": 5225,
      "sorun": 5226,
      "ÅŁallah": 5227,
      "ĠKaplama": 5228,
      "duÄŁunuz": 5229,
      "ĠulaÅŁtÄ±ÄŁÄ±nda": 5230,
      "amamÄ±": 5231,
      "Ġediyoruz": 5232,
      "ĠOf": 5233,
      "Ġerken": 5234,
      "ĠKahve": 5235,
      "ĠZincir": 5236,
      "Ġyardim": 5237,
      "obile": 5238,
      "bilir": 5239,
      "etli": 5240,
      "ĠStandlÄ±": 5241,
      "ĠyetiÅŁ": 5242,
      "atÃ¶r": 5243,
      "Ġkendinize": 5244,
      "gÃ¶rÃ¼ÅŁmemiz": 5245,
      "Ä±knatÄ±s": 5246,
      "Ġediliyor": 5247,
      "ĠpaylaÅŁÄ±r": 5248,
      "ai": 5249,
      "ĠsipariÅŁler": 5250,
      "ĠarkadaÅŁÄ±m": 5251,
      "ĠÄ°LE": 5252,
      "Ġbuna": 5253,
      "ĠyanÄ±lt": 5254,
      "Ġbelirtilen": 5255,
      "ĠsalaÅŁ": 5256,
      "Ġfit": 5257,
      "ena": 5258,
      "Ġetkili": 5259,
      "aklÄ±sÄ±nÄ±z": 5260,
      "ĺº": 5261,
      "uper": 5262,
      "ĠHas": 5263,
      "ĠhesabÄ±nÄ±z": 5264,
      "Ä±rka": 5265,
      "110": 5266,
      "EY": 5267,
      "ĠbÃ¼ÅŁra": 5268,
      "ayÄ±nÄ±z": 5269,
      "Ġoyuncak": 5270,
      "Ġ1000": 5271,
      "ĠKÄ±sa": 5272,
      "ĠsÃ¼recinde": 5273,
      "do": 5274,
      "Ġtest": 5275,
      "ĠÃ§abuk": 5276,
      "Ġpolyester": 5277,
      "ĠCinsi": 5278,
      "Ġhale": 5279,
      "Ġbelgesi": 5280,
      "ĠdemiÅŁ": 5281,
      "ĠEx": 5282,
      "Ġsonu": 5283,
      "ildiÄŁi": 5284,
      "ĠÃ¶zelliÄŁ": 5285,
      "Ġpratik": 5286,
      "ĠDurumu": 5287,
      "Ġkategor": 5288,
      "ilmis": 5289,
      "Ġgeleni": 5290,
      "afet": 5291,
      "bek": 5292,
      "Ġid": 5293,
      "EV": 5294,
      "ĠDev": 5295,
      "ĠYar": 5296,
      "ĠgÃ¶sterebilir": 5297,
      "ĠFren": 5298,
      "ĠsaÄŁlÄ±k": 5299,
      "ll": 5300,
      "ovo": 5301,
      "ĠkÄ±zÄ±m": 5302,
      "Ġkargodan": 5303,
      "ĠAltÄ±": 5304,
      "Ġbozuk": 5305,
      "ĠÃ¼yeliÄŁ": 5306,
      "Un": 5307,
      "adar": 5308,
      "Ŀ¤ï¸ı": 5309,
      "Ġtw": 5310,
      "ĠMont": 5311,
      "Ġmiyiz": 5312,
      "UK": 5313,
      "cer": 5314,
      "ĠyapÄ±labilir": 5315,
      "ĠsipariÅŁinizde": 5316,
      "ody": 5317,
      "Ġten": 5318,
      "ĠyoÄŁunluÄŁ": 5319,
      "Ãĩocuk": 5320,
      "mÄ±sÄ±nÄ±z": 5321,
      "emez": 5322,
      "Ġburada": 5323,
      "ĠÃ¼rÃ¼nÃ¼nÃ¼zÃ¼": 5324,
      "ĠetmiÅŁtim": 5325,
      "ĠBluz": 5326,
      "bilgi": 5327,
      "Ġtaz": 5328,
      "ĠsÃ¶yley": 5329,
      "opar": 5330,
      "Ġ05": 5331,
      "lot": 5332,
      "adÄ±m": 5333,
      "ĠbakmayÄ±n": 5334,
      "aÄŁÄ±dÄ±": 5335,
      "onun": 5336,
      "ĠhatalÄ±": 5337,
      "ĠKablosu": 5338,
      "Ġikinci": 5339,
      "Ġkanal": 5340,
      "ĠgÃ¶zÃ¼kmÃ¼yor": 5341,
      "Ġsorum": 5342,
      "Ġdenedim": 5343,
      "Ä°T": 5344,
      "Uz": 5345,
      "Kap": 5346,
      "Ġanaliz": 5347,
      "ĠyapmadÄ±ÄŁÄ±ndan": 5348,
      "Ġbilgisini": 5349,
      "wagen": 5350,
      "ĠaÃ§Ä±klama": 5351,
      "ĠÃĩap": 5352,
      "Ġedilmesini": 5353,
      "bÃ¶yle": 5354,
      "Ã¶t": 5355,
      "ĠPremium": 5356,
      "ebi": 5357,
      "gerek": 5358,
      "Ġzarf": 5359,
      "ĠMm": 5360,
      "tÄ±cÄ±": 5361,
      "ĠaÅŁaÄŁÄ±": 5362,
      "ĠÃ§aÄŁ": 5363,
      "ĠKum": 5364,
      "ny": 5365,
      "civert": 5366,
      "ĠsÄ±nÄ±f": 5367,
      "ĠalÄ±ndÄ±": 5368,
      "Ä°n": 5369,
      "Ġiadem": 5370,
      "ĠDeÄŁ": 5371,
      "Ġbirbir": 5372,
      "ĠhalÄ±": 5373,
      "Ġpamuklu": 5374,
      "Ġxl": 5375,
      "Ġstat": 5376,
      "imdeki": 5377,
      "lav": 5378,
      "Ġdurumuna": 5379,
      "ĠGir": 5380,
      "ĠSan": 5381,
      "bunun": 5382,
      "Ġsuyu": 5383,
      "atÃ¼rk": 5384,
      "ty": 5385,
      "tÄ±nÄ±z": 5386,
      "ĠStandart": 5387,
      "ĠMask": 5388,
      "ĠgeliÅŁtir": 5389,
      "Ġetmekten": 5390,
      "Ġgore": 5391,
      "ĠÃ¼yemize": 5392,
      "ĠGarant": 5393,
      "ĠmÃ¼dahale": 5394,
      "Kaliteli": 5395,
      "ĠKazak": 5396,
      "kswagen": 5397,
      "Ġmey": 5398,
      "ĠFor": 5399,
      "ĠÃ§Ã¶zÃ¼mlen": 5400,
      "Ġgece": 5401,
      "ĠbaÄŁlantÄ±": 5402,
      "ts": 5403,
      "Phone": 5404,
      "ate": 5405,
      "Ġbardak": 5406,
      "kus": 5407,
      "Ġyay": 5408,
      "ĠanlamadÄ±m": 5409,
      "rijinal": 5410,
      "ĠÃ§at": 5411,
      "ĠÅŁikayetleri": 5412,
      "Ġderim": 5413,
      "neaker": 5414,
      "itim": 5415,
      "Ġresmen": 5416,
      "Ġdal": 5417,
      "evresim": 5418,
      "ĠYok": 5419,
      "adaki": 5420,
      "Ġalmadan": 5421,
      "ĠtaÅŁÄ±ma": 5422,
      "andal": 5423,
      "eyse": 5424,
      "TER": 5425,
      "ĠcÄ±k": 5426,
      "ILI": 5427,
      "Ġahmet": 5428,
      "Ġrestor": 5429,
      "ĠgÃ¶remiyorum": 5430,
      "Ġkonum": 5431,
      "Ġsec": 5432,
      "DÄ°R": 5433,
      "ĠÄ±sÄ±": 5434,
      "ĠKaliteli": 5435,
      "ĠAyakkabÄ±sÄ±": 5436,
      "ĠgeÃ§irmenizi": 5437,
      "ayi": 5438,
      "Ġocak": 5439,
      "ekti": 5440,
      "kam": 5441,
      "yaÅŁadÄ±ÄŁÄ±nÄ±z": 5442,
      "ĺºï¸ı": 5443,
      "ahmet": 5444,
      "Ġolust": 5445,
      "soru": 5446,
      "Ġekibimize": 5447,
      "Ġdediler": 5448,
      "Ġ46": 5449,
      "Ġmuhafaza": 5450,
      "ĠCeket": 5451,
      "Ġsiparisim": 5452,
      "geldiniz": 5453,
      "gini": 5454,
      "icro": 5455,
      "ĠfarklÄ±lÄ±k": 5456,
      "ĠBoyasÄ±": 5457,
      "Ġ400": 5458,
      "ĠSiz": 5459,
      "les": 5460,
      "ĠolmanÄ±zÄ±": 5461,
      "enovo": 5462,
      "ĠhÄ±zlandÄ±r": 5463,
      "beden": 5464,
      "pro": 5465,
      "dÄ±ndan": 5466,
      "ĠiÃ§iniz": 5467,
      "illi": 5468,
      "ĠtÅŁk": 5469,
      "indan": 5470,
      "Ġ86": 5471,
      "ĠgeldiÄŁinde": 5472,
      "gb": 5473,
      "Ġkargonun": 5474,
      "Ġhayal": 5475,
      "ĠGeniÅŁlik": 5476,
      "ĠyapÄ±mÄ±": 5477,
      "lemiÅŁ": 5478,
      "lÄ±ÄŁÄ±nÄ±": 5479,
      "500": 5480,
      "US": 5481,
      "Ġteknoloj": 5482,
      "ĠalakasÄ±": 5483,
      "ocuÄŁ": 5484,
      "Kargo": 5485,
      "Ġtayt": 5486,
      "Ġyapabil": 5487,
      "ĠCan": 5488,
      "ĠOk": 5489,
      "Ġht": 5490,
      "ĠAÃ§Ä±klamasÄ±": 5491,
      "ÃľM": 5492,
      "yaz": 5493,
      "larÄ±mÄ±": 5494,
      "ĠEÅŁofman": 5495,
      "ĠolmayÄ±": 5496,
      "harika": 5497,
      "ĠÃ§alÄ±ÅŁÄ±yoruz": 5498,
      "yonel": 5499,
      "ĠgÃ¶ndermiÅŁler": 5500,
      "Ġinternet": 5501,
      "yak": 5502,
      "Ġpah": 5503,
      "ĠII": 5504,
      "Ġiadenizi": 5505,
      "ĠiÅŁe": 5506,
      "raz": 5507,
      "Ġistiyorsunuz": 5508,
      "ĠiÅŁaret": 5509,
      "Ļı": 5510,
      "ĠEbat": 5511,
      "ĠbeÄŁendik": 5512,
      "ĠTur": 5513,
      "Ġkoru": 5514,
      "Ġboyunca": 5515,
      "Ġyanlis": 5516,
      "ektÃ¶r": 5517,
      "gayet": 5518,
      "mayacak": 5519,
      "liyor": 5520,
      "ĠsÃ¼t": 5521,
      "tÄ±ÄŁÄ±m": 5522,
      "ĠparfÃ¼m": 5523,
      "Ġvarmi": 5524,
      "Ãĸzel": 5525,
      "yaÅŁamÄ±ÅŁ": 5526,
      "ĠtedarikÃ§imiz": 5527,
      "ĠKarton": 5528,
      "Ġiyiydi": 5529,
      "Bebek": 5530,
      "ĠDÄ±ÅŁ": 5531,
      "ĠgÃ¶nderilen": 5532,
      "IC": 5533,
      "Ġod": 5534,
      "Ġbeklen": 5535,
      "isyon": 5536,
      "Ġ58": 5537,
      "Ġum": 5538,
      "Ġlimit": 5539,
      "Ġtopuk": 5540,
      "avili": 5541,
      "±larak": 5542,
      "Ä±larak": 5543,
      "maktayÄ±z": 5544,
      "ĠbÃ¶lÃ¼mÃ¼nden": 5545,
      "ĠAc": 5546,
      "ĠMobile": 5547,
      "ĠÃĸz": 5548,
      "har": 5549,
      "amze": 5550,
      "Ġoldugu": 5551,
      "ĠGel": 5552,
      "ĠkartÄ±m": 5553,
      "ĠÃ¶ÄŁrenmek": 5554,
      "ĠaydÄ±n": 5555,
      "ota": 5556,
      "ĠBag": 5557,
      "avilion": 5558,
      "Ġtutuyor": 5559,
      "ĠBank": 5560,
      "Ak": 5561,
      "Kullan": 5562,
      "ĠKulaklÄ±k": 5563,
      "iat": 5564,
      "int": 5565,
      "lÄ±nda": 5566,
      "ĠÃ§ap": 5567,
      "EB": 5568,
      "isti": 5569,
      "fatura": 5570,
      "ĠAnd": 5571,
      "ĠiletmiÅŁ": 5572,
      "++": 5573,
      "duÄŁum": 5574,
      "Ġiletmek": 5575,
      "Ġsuan": 5576,
      "ĠÃ¶nceki": 5577,
      "ĠÄ±ÅŁÄ±": 5578,
      "iri": 5579,
      "ĠGÃ¶nder": 5580,
      "ĠKod": 5581,
      "ĠyanÄ": 5582,
      "ĠyanÄ±": 5583,
      "Ġhttp": 5584,
      "ĠHarfi": 5585,
      "dil": 5586,
      "ĠbeklediÄŁiniz": 5587,
      "ĠHediye": 5588,
      "ĠtereddÃ¼t": 5589,
      "ĠseÃ§im": 5590,
      "iÅŁi": 5591,
      "ĠDen": 5592,
      "ĠgeÃ§iyor": 5593,
      "ĠFiltresi": 5594,
      "lok": 5595,
      "Ġhalen": 5596,
      "ralÄ±": 5597,
      "Ġeden": 5598,
      "Ġceket": 5599,
      "ĠDe": 5600,
      "memnuniyetiniz": 5601,
      "ĠKÃ¼Ã§Ã¼k": 5602,
      "Ġyeter": 5603,
      "ĠgÃ¼ncellem": 5604,
      "HÄ±zlÄ±": 5605,
      "omet": 5606,
      "Ġetek": 5607,
      "ami": 5608,
      "ESÄ°": 5609,
      "gren": 5610,
      "Ġyazan": 5611,
      "onda": 5612,
      "bunu": 5613,
      "ĠLog": 5614,
      "Ã§Ä±k": 5615,
      "ĠkarÄ±ÅŁ": 5616,
      "Ġbazen": 5617,
      "ĠâĢĵ": 5618,
      "Ġ01": 5619,
      "ĠÃ§ay": 5620,
      "azi": 5621,
      "ĠgÃ¼venliÄŁi": 5622,
      "HAB": 5623,
      "Ġmustafa": 5624,
      "Ġtakib": 5625,
      "fc": 5626,
      "ĠnumaramÄ±": 5627,
      "onk": 5628,
      "ĠÄ°l": 5629,
      "Ġsistemi": 5630,
      "ĠÃ§alÄ±ÅŁÄ±yor": 5631,
      "ĠgÃ¶nderdim": 5632,
      "ĠFiyat": 5633,
      "unik": 5634,
      "biraz": 5635,
      "ĠsaÄŁlayarak": 5636,
      "sizleri": 5637,
      "ĠÅŁart": 5638,
      "Ġgidi": 5639,
      "Ġekstra": 5640,
      "ĠÃ§al": 5641,
      "ilk": 5642,
      "mÄ±s": 5643,
      "ĠGÃ¶rÃ¼n": 5644,
      "ĠÃ§Ä±kÄ±ÅŁÄ±": 5645,
      "deme": 5646,
      "ĠalÄ±rken": 5647,
      "ĠkumaÅŁtan": 5648,
      "Ã¼mlÃ¼": 5649,
      "ĠKOD": 5650,
      "ĠUzunluk": 5651,
      "ĠBakÄ±m": 5652,
      "Ne": 5653,
      "Ġinceley": 5654,
      ".<": 5655,
      "icam": 5656,
      "incan": 5657,
      "ĠÅŁah": 5658,
      "ĠsaÄŁlanmasÄ±": 5659,
      "ĠKel": 5660,
      "ayrÄ±ca": 5661,
      "ĠLamb": 5662,
      "siy": 5663,
      "ĠDesi": 5664,
      "elbette": 5665,
      "ĠAltlÄ±ÄŁÄ±": 5666,
      "Ã¼zik": 5667,
      "ĠKAP": 5668,
      "ĠkÄ±smÄ±na": 5669,
      "ĠÃ§Ã¶zÃ¼le": 5670,
      "ĠRÃ¶t": 5671,
      "ĠdeÄŁiÅŁtirmek": 5672,
      "ĠyapÄ±yorum": 5673,
      "ĠMermer": 5674,
      "ĠparÃ§alar": 5675,
      "iliÄŁi": 5676,
      "Ġkuponum": 5677,
      "In": 5678,
      "ĠalmÄ±ÅŁÄ±m": 5679,
      "Ġbayan": 5680,
      "Ġask": 5681,
      "Ġkargoyla": 5682,
      "tab": 5683,
      "Ġverin": 5684,
      "niz": 5685,
      "Ġlutfen": 5686,
      "app": 5687,
      "ĠyapÄ±yoruz": 5688,
      "laj": 5689,
      "ĠKUL": 5690,
      "ĠXs": 5691,
      "ĠTy": 5692,
      "ĠPavilion": 5693,
      "akiki": 5694,
      "numar": 5695,
      "Ġ95": 5696,
      "ii": 5697,
      "Ã¼bra": 5698,
      "ĠolmamasÄ±": 5699,
      "ĠDoÄŁal": 5700,
      "ĠÃĩek": 5701,
      "Ġgozuk": 5702,
      "Ġetiket": 5703,
      "Ġucuz": 5704,
      "Model": 5705,
      "artman": 5706,
      "ĠGran": 5707,
      "ilip": 5708,
      "Ġincelem": 5709,
      "ĠyapÄ±lmaktadÄ±r": 5710,
      "Ġmiktar": 5711,
      "ĠyapÄ±la": 5712,
      "Ġkadin": 5713,
      "Ġtok": 5714,
      "bon": 5715,
      "panya": 5716,
      "ĠÄ±ÅŁ": 5717,
      "MERHAB": 5718,
      "ĠkeÅŁke": 5719,
      "ĠyazÄ": 5720,
      "ĠyazÄ±": 5721,
      "Ġolmadi": 5722,
      "ĠoluÅŁmaktadÄ±r": 5723,
      "vÄ": 5724,
      "vÄ±": 5725,
      "ĠyazdÄ±m": 5726,
      "Ġdeniz": 5727,
      "Bay": 5728,
      "Ġalisver": 5729,
      "tiÃ§i": 5730,
      "Ġbilgiyi": 5731,
      "Ġ33": 5732,
      "Ġmotor": 5733,
      "gÄ±m": 5734,
      "esiyle": 5735,
      "bildirim": 5736,
      "bc": 5737,
      "Ġetmedim": 5738,
      "ĠgÃ¶nderebilirsiniz": 5739,
      "ÉĻ": 5740,
      "Ġeklen": 5741,
      "latma": 5742,
      "diy": 5743,
      "ale": 5744,
      "eluÅŁ": 5745,
      "rengi": 5746,
      "ĠyapmanÄ±z": 5747,
      "inede": 5748,
      "Ġtrans": 5749,
      "Ġtutan": 5750,
      "edigim": 5751,
      "Ġfarkli": 5752,
      "ss": 5753,
      "iptal": 5754,
      "Ġkaf": 5755,
      "elerde": 5756,
      "ayla": 5757,
      "sunu": 5758,
      "ilmesini": 5759,
      "Ġsaati": 5760,
      "REN": 5761,
      "Ġsonucu": 5762,
      "lendirici": 5763,
      "Ġdedim": 5764,
      "ĠzarfÄ±nda": 5765,
      "ĠyÄ±kanabilir": 5766,
      "das": 5767,
      "Ġali": 5768,
      "=\"\"": 5769,
      "ĠardÄ±ndan": 5770,
      "Kozmetik": 5771,
      "ĠRose": 5772,
      "ĠÃ§iÃ§ek": 5773,
      "Ġdurumdan": 5774,
      "Ġiades": 5775,
      "ĠkullanabileceÄŁiniz": 5776,
      "ĠyayÄ±n": 5777,
      "bd": 5778,
      "OM": 5779,
      "iÄŁinde": 5780,
      "ova": 5781,
      "Ġetme": 5782,
      "abilen": 5783,
      "Ġitibaren": 5784,
      "Ġbilgilerim": 5785,
      "Ġbirimimiz": 5786,
      "itamin": 5787,
      "endÄ±m": 5788,
      "'s": 5789,
      "ĠyaptÄ±r": 5790,
      "ĠgiriÅŁi": 5791,
      "ĠVen": 5792,
      "beyaz": 5793,
      "ĠayÅŁe": 5794,
      "Ġistey": 5795,
      "ĠgÃ¶rselde": 5796,
      "ĠLe": 5797,
      "Par": 5798,
      "ĠYat": 5799,
      "ĠTablet": 5800,
      "AhÅŁap": 5801,
      "Ġ97860": 5802,
      "ĠDayanÄ±klÄ±": 5803,
      "Ã§Ã¶zÃ¼m": 5804,
      "ĠtÃ¼rk": 5805,
      "dm": 5806,
      "amasÄ±": 5807,
      "Ã¼lÃ¼": 5808,
      "Ġkulak": 5809,
      "Ġbildirimi": 5810,
      "Ġyapabilirim": 5811,
      "ĠbaÅŁlattÄ±m": 5812,
      "ĠnoktasÄ±": 5813,
      "Ġuyuml": 5814,
      "GÃ¼mÃ¼ÅŁ": 5815,
      "ĠhoÅŁÃ§a": 5816,
      "Ġelinize": 5817,
      "ĠkÃ¼bra": 5818,
      "ĠAskÄ±lÄ±": 5819,
      "ĠkullanÄ±lmÄ±ÅŁtÄ±r": 5820,
      "Ġalsam": 5821,
      "ĠiÅŁÃ§": 5822,
      "Ġfil": 5823,
      "Man": 5824,
      "lanÄ±yor": 5825,
      "ae": 5826,
      "Ġmasa": 5827,
      "ĠBur": 5828,
      "ĠÃĩevir": 5829,
      "ĠalÄ±nmasÄ±": 5830,
      "ĠdiÅŁ": 5831,
      "usuf": 5832,
      "iyas": 5833,
      "Sp": 5834,
      "ĠoluÅŁturuyorum": 5835,
      "bf": 5836,
      "ĠYÄ±kama": 5837,
      "Ġ09": 5838,
      "ĠTavsiye": 5839,
      "ĠkÃ¶ÅŁ": 5840,
      "mat": 5841,
      "ĠonaylÄ±yor": 5842,
      "ĠLastik": 5843,
      "Ġtur": 5844,
      "Ġbes": 5845,
      "ysanÄ±z": 5846,
      "ÄŁÄ±nda": 5847,
      "Ġgal": 5848,
      "meliyim": 5849,
      "Ġeg": 5850,
      "ĠyapamÄ±yoruz": 5851,
      "Ġmask": 5852,
      "ĠKlasik": 5853,
      "ĠdoÄŁum": 5854,
      "ĠsÃ¶ylen": 5855,
      "lanmÄ±ÅŁ": 5856,
      "Ġsepette": 5857,
      "Ã¼et": 5858,
      "edef": 5859,
      "Ġ03": 5860,
      "Ġ06": 5861,
      "gÃ¶nder": 5862,
      "Ġreferans": 5863,
      "ĠdayanÄ±klÄ±dÄ±r": 5864,
      "ĠhaklÄ±sÄ±nÄ±z": 5865,
      "ĠRÃ¶tuÅŁ": 5866,
      "Ġherkese": 5867,
      "ullah": 5868,
      "Ä°Ã§": 5869,
      "ĠApple": 5870,
      "ĠGÃ¼Ã§": 5871,
      "General": 5872,
      "Ġhttps": 5873,
      "uzun": 5874,
      "ĠOyuncak": 5875,
      "ĠGÃ¼l": 5876,
      "hayir": 5877,
      "alim": 5878,
      "ĠkasÄ±m": 5879,
      "ĠyazmÄ±ÅŁ": 5880,
      "Ġthe": 5881,
      "Ġsunar": 5882,
      "Ġdurumun": 5883,
      "Ġelbis": 5884,
      "ĠSAÄŀ": 5885,
      "must": 5886,
      "Ãĸn": 5887,
      "ĠaÃ§Ä±lmÄ±ÅŁ": 5888,
      "ĠFarklÄ±": 5889,
      "Ġsek": 5890,
      "ĠBluetooth": 5891,
      "Ġsanki": 5892,
      "Ġgram": 5893,
      "Ġiletmeniz": 5894,
      "elerin": 5895,
      "ĠsÃ¼rat": 5896,
      "acagim": 5897,
      "Ġ43": 5898,
      "gileri": 5899,
      "ĠkullanÄ±lmÄ±ÅŁ": 5900,
      "ĠÃ¶ncelik": 5901,
      "Ä±mÄ±zdan": 5902,
      "ĠKanvas": 5903,
      "Ġ..": 5904,
      "ĠPAR": 5905,
      "onksiyon": 5906,
      "DAN": 5907,
      "ĠTÃ¼rkÃ§e": 5908,
      "Ġkoleksiyon": 5909,
      "ĠKapÄ": 5910,
      "ĠKapÄ±": 5911,
      "ĠCore": 5912,
      "rol": 5913,
      "Ġsevdim": 5914,
      "Ġtemas": 5915,
      "udra": 5916,
      "ĠKiÅŁilik": 5917,
      "Ġetmez": 5918,
      "Ġmerkezimize": 5919,
      "doÄŁru": 5920,
      "mey": 5921,
      "Ġgerekt": 5922,
      "ĠKeyifli": 5923,
      "Ġbut": 5924,
      "lerime": 5925,
      "Ġmor": 5926,
      "Shirt": 5927,
      "Ġgold": 5928,
      "market": 5929,
      "ĠEF": 5930,
      "Ġettir": 5931,
      "ĠÃ¶nerir": 5932,
      "Ġedebil": 5933,
      "ĠÃ§Ã¶": 5934,
      "teki": 5935,
      "ĠfirmasÄ±nÄ±n": 5936,
      "Ġurunun": 5937,
      "Ġtabl": 5938,
      "Ġkablo": 5939,
      "Ġkaynak": 5940,
      "ĠbirkaÃ§": 5941,
      "Ġled": 5942,
      "tuÄŁ": 5943,
      "gÃ¼naydÄ±n": 5944,
      "lerinizin": 5945,
      "ĠTAK": 5946,
      "Ġolustur": 5947,
      "ettÃ¼r": 5948,
      "Ġtelefonu": 5949,
      "Ġmakinesi": 5950,
      "ĠbekleteceÄŁim": 5951,
      "ediniz": 5952,
      "ĠÅŁimdiden": 5953,
      "Ġkaybol": 5954,
      "ĠyaÄŁÄ±": 5955,
      "ĠKÄ±rÄ±lmaz": 5956,
      "ĠparayÄ±": 5957,
      "ĠTopuklu": 5958,
      "GÃ¶rÃ¼n": 5959,
      "anÄ±za": 5960,
      "Ġraf": 5961,
      "ĠBankasÄ±": 5962,
      "rc": 5963,
      "ĠdeÄŁilim": 5964,
      "ĠKuru": 5965,
      "ĠÃ¶zenle": 5966,
      "Ġkombin": 5967,
      "\">": 5968,
      "euge": 5969,
      "ual": 5970,
      "yÄ±l": 5971,
      "ĠÃĩiÃ§": 5972,
      "ĠoluÅŁturabilirsiniz": 5973,
      "Ġsormak": 5974,
      "Ch": 5975,
      "tadÄ±r": 5976,
      "Ġmekan": 5977,
      "oman": 5978,
      "ĠulaÅŁmasÄ±": 5979,
      "medim": 5980,
      "indirim": 5981,
      "all": 5982,
      "ĠUygun": 5983,
      "EDEN": 5984,
      "Ġ180": 5985,
      "eugeot": 5986,
      "SB": 5987,
      "Ġyarat": 5988,
      "ĠOmuz": 5989,
      "Ġmahal": 5990,
      "nanÄ±n": 5991,
      "ĠyansÄ±ma": 5992,
      "Ġediniz": 5993,
      "Ġgide": 5994,
      "amaj": 5995,
      "ĠXiaomi": 5996,
      "ĠRozet": 5997,
      "Ġmaske": 5998,
      "Ġyem": 5999,
      "ĠiÅŁleme": 6000,
      "Ġekrana": 6001,
      "Ġverdi": 6002,
      "yesi": 6003,
      "isa": 6004,
      "ĠAncak": 6005,
      "Ġiletir": 6006,
      "iyorlar": 6007,
      "ix": 6008,
      "GÃ¼n": 6009,
      "Ġ64": 6010,
      "ĠolmalÄ±": 6011,
      "ĠÃ§ocuklar": 6012,
      "Ġmidir": 6013,
      "ĠAnahtar": 6014,
      "ĠHonor": 6015,
      "Ġmesaf": 6016,
      "ĠyÄ±llar": 6017,
      "Ġyaparken": 6018,
      "ĠÃ§amaÅŁÄ±r": 6019,
      "Ġdi": 6020,
      "Ã¼ÅŁonlu": 6021,
      "elerden": 6022,
      "ĠdoÄŁrultu": 6023,
      "Ġkucuk": 6024,
      "ĠverdiÄŁ": 6025,
      "ormalde": 6026,
      "kÄ±r": 6027,
      "hala": 6028,
      "ĠSert": 6029,
      "Ġtemizleme": 6030,
      "ĠPet": 6031,
      "Lenovo": 6032,
      "cÄ±k": 6033,
      "atih": 6034,
      "ĠMev": 6035,
      "para": 6036,
      "mamÄ±z": 6037,
      "eÄŁiyle": 6038,
      "ĠÃ§erÃ§ev": 6039,
      "kasÄ±": 6040,
      "Ġdav": 6041,
      "ĠnumaranÄ±zÄ±n": 6042,
      "Ġoda": 6043,
      "Ä±nar": 6044,
      "Ġbahar": 6045,
      "ARK": 6046,
      "Ġsitemiz": 6047,
      "Yan": 6048,
      "dar": 6049,
      "Ġhediyesi": 6050,
      "elerini": 6051,
      "Ġhe": 6052,
      "Ġ52": 6053,
      "ĠTh": 6054,
      "Ġedilmektedir": 6055,
      "fesyonel": 6056,
      "osuz": 6057,
      "Ä±lÄ±m": 6058,
      "Ġsam": 6059,
      "adin": 6060,
      "Ġcek": 6061,
      "Ġgiyim": 6062,
      "ekteyiz": 6063,
      "ĠayrÄ±lmanÄ±zÄ±": 6064,
      "ĠiÃ§inden": 6065,
      "ĠSatÄ±cÄ±": 6066,
      "lanma": 6067,
      "OP": 6068,
      "Uzun": 6069,
      "Ġrez": 6070,
      "ĠGm": 6071,
      "sipariÅŁiniz": 6072,
      "ograf": 6073,
      "isinden": 6074,
      "osta": 6075,
      "yemek": 6076,
      "ĠYÃ¼zÃ¼klÃ¼": 6077,
      "ĠPuzzle": 6078,
      "Ġedecek": 6079,
      "ĠgÃ¼nÃ¼nÃ¼z": 6080,
      "ood": 6081,
      "abilmesi": 6082,
      "ĠColor": 6083,
      "ĠÃ¼retilmiÅŁ": 6084,
      "iya": 6085,
      "Ġhesapta": 6086,
      "Ġaparat": 6087,
      "Ġyorumlarda": 6088,
      "Ġkodunuzu": 6089,
      "Ek": 6090,
      "ĠMar": 6091,
      "ĠDar": 6092,
      "ĠCell": 6093,
      "ĠÃ§ik": 6094,
      "ĠVar": 6095,
      "Ġolsay": 6096,
      "ĠGÃľN": 6097,
      "anla": 6098,
      "ĠFig": 6099,
      "ĠgeÃ§irmez": 6100,
      "bar": 6101,
      "GÄ°": 6102,
      "ĠsipariÅŁte": 6103,
      "Kol": 6104,
      "ĠyÃ¼kseklik": 6105,
      "ĠsoÄŁuk": 6106,
      "Ġkonunun": 6107,
      "Ġbelki": 6108,
      "Ã¼sk": 6109,
      "ĠDÃ¼ÄŁ": 6110,
      "ĠÃ§orap": 6111,
      "oÄŁu": 6112,
      "ĠayaÄŁ": 6113,
      "Ġetkisi": 6114,
      "ĠkaÄŁÄ±t": 6115,
      "epsi": 6116,
      "Ġ04": 6117,
      "Ġyapil": 6118,
      "Bmw": 6119,
      "musunuz": 6120,
      "ĠBlack": 6121,
      "ĠpiÅŁman": 6122,
      "leyerek": 6123,
      "ĠFermu": 6124,
      "idth": 6125,
      "ĠoluÅŁan": 6126,
      "niver": 6127,
      "ÃľZ": 6128,
      "Ä±rtÄ±k": 6129,
      "Ã¼nger": 6130,
      "ure": 6131,
      "ĠKULLAN": 6132,
      "ĠÅŀÄ±k": 6133,
      "makla": 6134,
      "Ġgerc": 6135,
      "Ġomuz": 6136,
      "urt": 6137,
      "Ġ2012": 6138,
      "ĠÄ°ÅŁ": 6139,
      "Ä±knatÄ±slÄ±": 6140,
      "gec": 6141,
      "ĠBordo": 6142,
      "detay": 6143,
      "Ġlacivert": 6144,
      "alama": 6145,
      "Ġsir": 6146,
      "Mercedes": 6147,
      "ela": 6148,
      "sepad": 6149,
      "ĠalÄ±nan": 6150,
      "ĠYastÄ±k": 6151,
      "Ġkoltuk": 6152,
      "Ġtip": 6153,
      "Ġseh": 6154,
      "ĠYaprak": 6155,
      "tage": 6156,
      "enek": 6157,
      "ote": 6158,
      "renk": 6159,
      "ĠKÃ¼l": 6160,
      "Ġyatak": 6161,
      "ikay": 6162,
      "sr": 6163,
      "ĠalÄ±m": 6164,
      "Ġmutfak": 6165,
      "ĠOrjinal": 6166,
      "ĠalmadÄ±m": 6167,
      "Ġkilom": 6168,
      "Ġiptali": 6169,
      "Ġdikkate": 6170,
      "ĠhesabÄ±nÄ±zÄ±": 6171,
      "Ġaksamlar": 6172,
      "ĠgeliÅŁ": 6173,
      "Ġsa": 6174,
      "ĠÃľzer": 6175,
      "Ã¼rÃ¼nler": 6176,
      "kiler": 6177,
      "Ġdiyorum": 6178,
      "Ġtalim": 6179,
      "ĠTriko": 6180,
      "Ġbide": 6181,
      "Ä±yo": 6182,
      "ĠgÃ¶nderilecek": 6183,
      "Ġsandal": 6184,
      "ĠXL": 6185,
      "saniz": 6186,
      "lanan": 6187,
      "Ġolmaktan": 6188,
      "iyer": 6189,
      "ebiliriz": 6190,
      "Ġbekler": 6191,
      "dÃ¼ÄŁÃ¼nden": 6192,
      "ĠkardeÅŁ": 6193,
      "larÄ±mÄ±zda": 6194,
      "lÄ±ÄŁÄ±yla": 6195,
      "Ġtaktir": 6196,
      "ĠhayÄ±rlÄ±": 6197,
      "Ġsistemsel": 6198,
      "ĠÃ¼stÃ¼ne": 6199,
      "Ġ07": 6200,
      "ÅŁÄ±rÄ±": 6201,
      "layÄ±n": 6202,
      "Ġbirden": 6203,
      "Ġortaya": 6204,
      "ivil": 6205,
      "Ã¼rÃ¼z": 6206,
      "St": 6207,
      "ĠVER": 6208,
      "ene": 6209,
      "Ġmalzemesi": 6210,
      "ĠPijama": 6211,
      "encere": 6212,
      "olur": 6213,
      "ĠyapÄ±p": 6214,
      "ilerek": 6215,
      "ĠTaraf": 6216,
      "Ġmurat": 6217,
      "deyken": 6218,
      "Ä±ndÄ±r": 6219,
      "alara": 6220,
      "layÄ±cÄ±": 6221,
      "Ġ54": 6222,
      "Ġikisi": 6223,
      "ĠkÃ¶p": 6224,
      "iger": 6225,
      "Ġetmeden": 6226,
      "Ġand": 6227,
      "ĠKas": 6228,
      "Ġtemizlen": 6229,
      "ektim": 6230,
      "inyum": 6231,
      "AF": 6232,
      "Alt": 6233,
      "ĠDel": 6234,
      "imd": 6235,
      "Ġpazartesi": 6236,
      "ĠHaf": 6237,
      "Ġnerde": 6238,
      "uel": 6239,
      "encer": 6240,
      "Ġismi": 6241,
      "leriyle": 6242,
      "ebilen": 6243,
      "Ġniye": 6244,
      "anlÄ±k": 6245,
      "ĠBOY": 6246,
      "Ġedilecektir": 6247,
      "mamak": 6248,
      "ĠÅŁirketi": 6249,
      "lÄ±dÄ±r": 6250,
      "Ġnokta": 6251,
      "ĠÃ¼n": 6252,
      "Ġdepo": 6253,
      "elek": 6254,
      "ĠdetayÄ±": 6255,
      "Ġ2015": 6256,
      "ĠpahalÄ±": 6257,
      "ildiÄŁini": 6258,
      "Ä±ldÄ±ÄŁÄ±": 6259,
      "ĠBoyun": 6260,
      "ĠBÄ°L": 6261,
      "ĠkiÅŁilik": 6262,
      "Ġisteyen": 6263,
      "ĠcÃ¼zdandan": 6264,
      "RET": 6265,
      "Ġkuryemiz": 6266,
      "ĠyastÄ±k": 6267,
      "ediÄŁini": 6268,
      "ĠOrta": 6269,
      "Ġetmey": 6270,
      "ĠÅŁuanda": 6271,
      "Ġuygulamas": 6272,
      "ĠgÃ¼Ã§lÃ¼": 6273,
      "ĠsÃ¼s": 6274,
      "Ä°C": 6275,
      "ĠMousepad": 6276,
      "Res": 6277,
      "Ġkusura": 6278,
      "ĠFil": 6279,
      "Ġboyle": 6280,
      "ĠgÃ¶rdÃ¼m": 6281,
      "ĠIÄ": 6282,
      "Ġkimyasal": 6283,
      "ĠyÃ¼zeyi": 6284,
      "ĠIÄ±": 6285,
      "sor": 6286,
      "Ġam": 6287,
      "ĠÃĸlÃ§Ã¼sÃ¼": 6288,
      "istir": 6289,
      "Ġoversize": 6290,
      "ENDÄ°M": 6291,
      "Mavi": 6292,
      "Ġkoruy": 6293,
      "ĠfirmasÄ±ndan": 6294,
      "ĠÃľrÃ¼nler": 6295,
      "ĠÃ§Ä±kmÄ±ÅŁ": 6296,
      "ĠtaÅŁÄ": 6297,
      "ĠtaÅŁÄ±": 6298,
      "Ġkamera": 6299,
      "imle": 6300,
      "ĠÃ§antasÄ±": 6301,
      "Ġdilek": 6302,
      "ĠÄ°le": 6303,
      "Ġlezz": 6304,
      "Sev": 6305,
      "ĠkalmÄ±ÅŁ": 6306,
      "Ġedebilirim": 6307,
      "TT": 6308,
      "ork": 6309,
      "KumaÅŁ": 6310,
      "Ġtemin": 6311,
      "Ġicinde": 6312,
      "ĠvazgeÃ§": 6313,
      "ĠyÃ¼ksekliÄŁi": 6314,
      "Ã¼rekk": 6315,
      "yl": 6316,
      "Ä±nÄ±r": 6317,
      "ĠdeÄŁerlendirmeniz": 6318,
      "ĠsaÄŁlayamÄ±yorum": 6319,
      "ĠoÄŁlum": 6320,
      "alÄ±ÄŁÄ±": 6321,
      "ĠServis": 6322,
      "ĠbeÅŁ": 6323,
      "ĠgÃ¶rÃ¼ntÃ¼sÃ¼": 6324,
      "dÄ±zlÄ±": 6325,
      "akin": 6326,
      "Ġdahi": 6327,
      "ĠÃ§eÅŁit": 6328,
      "tegr": 6329,
      "Ä°F": 6330,
      "ill": 6331,
      "siyet": 6332,
      "lerinize": 6333,
      "Ġ31": 6334,
      "Ġeksiksiz": 6335,
      "Ġkesimi": 6336,
      "isli": 6337,
      "ĠgÃ¶vde": 6338,
      "ĠolduÄŁumu": 6339,
      "Ä±lmasÄ±nÄ±": 6340,
      "Ġbedendir": 6341,
      "ORT": 6342,
      "Ġyaziyor": 6343,
      "ĠsaÄŁlayacaÄŁÄ±z": 6344,
      "Ġdurmuyor": 6345,
      "Ġhijyen": 6346,
      "ĠtÄ±klayarak": 6347,
      "ĠdaÄŁÄ±tÄ±m": 6348,
      "ĠiÅŁleminiz": 6349,
      "azar": 6350,
      "ion": 6351,
      "ĠST": 6352,
      "LA": 6353,
      "zaten": 6354,
      "Ġmevsim": 6355,
      "ĠÃ¶ÄŁrenebilirsiniz": 6356,
      "ĠyaptÄ±ÄŁÄ±m": 6357,
      "Ġyardimci": 6358,
      "Ä±lmÄ±ÅŁtÄ±r": 6359,
      "ĠkazandÄ±r": 6360,
      "ERÄ°": 6361,
      "ĠdeÄŁerlendirirseniz": 6362,
      "ĠDÃ¼n": 6363,
      "Ġbirimimize": 6364,
      "ĠiPhone": 6365,
      "ĠsÃ¼pÃ¼r": 6366,
      "elin": 6367,
      "ĠSÃ¼t": 6368,
      "ĠulaÅŁmÄ±ÅŁ": 6369,
      "mn": 6370,
      "ĠdileÄŁiyle": 6371,
      "ĠgÃ¶nderiliyor": 6372,
      "ĠyaÅŁanÄ±lan": 6373,
      "IY": 6374,
      "Ġfer": 6375,
      "Ä±lÄ±ÄŁ": 6376,
      "Ġsokak": 6377,
      "ÃĸR": 6378,
      "ĠÃ§Ã¶zÃ¼me": 6379,
      "masÄ±n": 6380,
      "Ġanla": 6381,
      "ĠWatch": 6382,
      "ahim": 6383,
      "adem": 6384,
      "Ġtedar": 6385,
      "isinin": 6386,
      "ĠamacÄ±": 6387,
      "Ä±mÄ±zÄ": 6388,
      "Ä±mÄ±zÄ±": 6389,
      "Ġbizde": 6390,
      "400": 6391,
      "lor": 6392,
      "Ġmum": 6393,
      "ĠBiz": 6394,
      "malÄ±sÄ±nÄ±z": 6395,
      "ĠModern": 6396,
      "ĠiÅŁleminizi": 6397,
      "ond": 6398,
      "ĠAtatÃ¼rk": 6399,
      "Ġlt": 6400,
      "Ġkelim": 6401,
      "orselen": 6402,
      "mÄ±yorum": 6403,
      "Ġ56": 6404,
      "Ġkimse": 6405,
      "ifi": 6406,
      "Ġ2010": 6407,
      "elidir": 6408,
      "Ä±lÄ±ÄŁÄ±": 6409,
      "ĠOR": 6410,
      "ĠalÄ±nmalÄ±": 6411,
      "Ġbileklik": 6412,
      "Ġbin": 6413,
      "ĠkullanmanÄ±zÄ±": 6414,
      "Ġonlar": 6415,
      "ĠSes": 6416,
      "ĠYÄ±ldÄ±z": 6417,
      "ĠKODU": 6418,
      "maktayÄ±m": 6419,
      "aÃ§a": 6420,
      "ilecektir": 6421,
      "FiyatÄ±na": 6422,
      "Ġbenzer": 6423,
      "Unisex": 6424,
      "ĠDef": 6425,
      "ĠkullanamÄ±yorum": 6426,
      "ĠhÄ±zlÄ±ca": 6427,
      "Â°": 6428,
      "Ġkuponunuz": 6429,
      "Ġmax": 6430,
      "Ġlamb": 6431,
      "Tes": 6432,
      "luyor": 6433,
      "ĠeriÅŁim": 6434,
      "Ġbet": 6435,
      "zu": 6436,
      "oyota": 6437,
      "ĠolursanÄ±z": 6438,
      "banka": 6439,
      "tern": 6440,
      "Renault": 6441,
      "erji": 6442,
      "Ġbirimlerimiz": 6443,
      "ĠPower": 6444,
      "ĠKok": 6445,
      "Ġvardi": 6446,
      "ĠsipariÅŁleri": 6447,
      "ubuk": 6448,
      "sn": 6449,
      "ĠkapaÄŁÄ±": 6450,
      "ĠHarfli": 6451,
      "ĠyakÄ±ÅŁ": 6452,
      "ÃĩÃľ": 6453,
      "160": 6454,
      "ĠdesteÄŁi": 6455,
      "akkabi": 6456,
      "satÄ±cÄ±ya": 6457,
      "tifik": 6458,
      "Ġsilip": 6459,
      "Efendim": 6460,
      "ĠyÃ¼zÃ¼k": 6461,
      "ĠRahat": 6462,
      "Ġ96": 6463,
      "att": 6464,
      "Ġtipi": 6465,
      "alarÄ±n": 6466,
      "ĠTÄ±rnak": 6467,
      "lenme": 6468,
      "ĠArt": 6469,
      "EÃĩ": 6470,
      "db": 6471,
      "Ġistemez": 6472,
      "Ġgidip": 6473,
      "Ġuzunluk": 6474,
      "Volkswagen": 6475,
      "Ġlastikli": 6476,
      "Ġyuz": 6477,
      "Ġamp": 6478,
      "Ġgorsel": 6479,
      "ĠseÃ§tim": 6480,
      "Ġucu": 6481,
      "ĠgÃ¶rÃ¼ntÃ¼len": 6482,
      "ĠsÄ±kÄ±nt": 6483,
      "ÅŁlemlerinizi": 6484,
      "ĠMark": 6485,
      "atlÄ±": 6486,
      "Ġyapabiliriz": 6487,
      "ĠgÃ¶tÃ¼r": 6488,
      "Ġvermiyor": 6489,
      "180": 6490,
      "ilet": 6491,
      "Ġversem": 6492,
      "Ġbunlar": 6493,
      "yunda": 6494,
      "Ġus": 6495,
      "ĠMetre": 6496,
      "Ġkullanabilir": 6497,
      "Ġgarantili": 6498,
      "deÄŁerli": 6499,
      "Ġyerden": 6500,
      "nÄ±n": 6501,
      "ĠsaÄŁlayan": 6502,
      "ĠSÄ±rt": 6503,
      "enf": 6504,
      "ĠkÃ¼l": 6505,
      "lÃ¼l": 6506,
      "ĠBi": 6507,
      "ĠyÄ±rt": 6508,
      "ĠAynÄ±": 6509,
      "ĠÃ¶zlem": 6510,
      "ĠAst": 6511,
      "ĠmarkasÄ±": 6512,
      "Ġdepoya": 6513,
      "ĠkullanmadÄ±m": 6514,
      "ĠUYUM": 6515,
      "ĠSOR": 6516,
      "Ġrenkte": 6517,
      "ĠðŁĺ": 6518,
      "iyel": 6519,
      "hem": 6520,
      "Ġsabun": 6521,
      "IT": 6522,
      "ĠaparatÄ±": 6523,
      "line": 6524,
      "Ġmerkezimiz": 6525,
      "EC": 6526,
      "Ġmis": 6527,
      "Ġkullanmadan": 6528,
      "TÄ°R": 6529,
      "ĠHam": 6530,
      "ĠkÃ¼Ã§": 6531,
      "lerinizde": 6532,
      "Ġkedi": 6533,
      "Ġdey": 6534,
      "Ã®": 6535,
      "Ä±lmaktadÄ±r": 6536,
      "Ġverirseniz": 6537,
      "ĠtÃ¼ketic": 6538,
      "ĠsonuÃ§landÄ±r": 6539,
      "ĠOEM": 6540,
      "daÅŁÄ±": 6541,
      "Ġkabl": 6542,
      "alarÄ±nÄ±": 6543,
      "Ġbizi": 6544,
      "Ġkonfor": 6545,
      "Ġelektronik": 6546,
      "Ã¼stÃ¼": 6547,
      "ilerin": 6548,
      "ĠFan": 6549,
      "ysa": 6550,
      "tahmini": 6551,
      "ĠdoÄŁrultusunda": 6552,
      "arsanÄ±z": 6553,
      "ĠhÄ±zlÄ±ydÄ±": 6554,
      "tel": 6555,
      "Ġindirimden": 6556,
      "ame": 6557,
      "Ġsimdi": 6558,
      "INDA": 6559,
      "Ġparmak": 6560,
      "Ġpas": 6561,
      "oton": 6562,
      "Karg": 6563,
      "ĠiÅŁlemini": 6564,
      "Ä°ade": 6565,
      "atÃ§Ä±": 6566,
      "ĠyaÅŁamanÄ±zÄ±": 6567,
      "Arka": 6568,
      "arÅŁaf": 6569,
      "ĠÅŁan": 6570,
      "Ġkalitede": 6571,
      "ĠaylÄ±k": 6572,
      "ĠgÃ¶k": 6573,
      "ĠkuÅŁ": 6574,
      "Ġsezon": 6575,
      "latÄ±": 6576,
      "ĠPap": 6577,
      "ĠKutusu": 6578,
      "Ġhesaba": 6579,
      "ĠyazlÄ±k": 6580,
      "Ġbelirtmeliyim": 6581,
      "Ġana": 6582,
      "Ġfirmadan": 6583,
      "ĠTank": 6584,
      "nasÄ±lsÄ±nÄ±z": 6585,
      "Ġkel": 6586,
      "ĠsaÄŁlayacaÄŁÄ±m": 6587,
      "Ġbilgisayar": 6588,
      "cb": 6589,
      "ates": 6590,
      "ĠPenye": 6591,
      "ecekler": 6592,
      "ĠMu": 6593,
      "ĠyÃ¼ksel": 6594,
      "ĠGÃ¼zel": 6595,
      "ĠbirÃ§ok": 6596,
      "lasÄ±": 6597,
      "irtib": 6598,
      "Ġkemer": 6599,
      "bahar": 6600,
      "eten": 6601,
      "ambu": 6602,
      "Ä±sÄ±z": 6603,
      "LÃľ": 6604,
      "Ġnaziksiniz": 6605,
      "ÄŀÄ°": 6606,
      "Ġkutusunda": 6607,
      "Ġbakiye": 6608,
      "Ġ2008": 6609,
      "udi": 6610,
      "Ġolmazsa": 6611,
      "ĠgÃ¶rebilirsiniz": 6612,
      "cre": 6613,
      "Beden": 6614,
      "ĠgÃ¶rmekteyim": 6615,
      "Ġalisveris": 6616,
      "ĠsayÄ±sÄ±": 6617,
      "ĠdeÄŁildi": 6618,
      "ANT": 6619,
      "ĠParlak": 6620,
      "Ġverip": 6621,
      "Ġismim": 6622,
      "Ġkayd": 6623,
      "aras": 6624,
      "Ġdis": 6625,
      "ĠBalon": 6626,
      "caÄŁ": 6627,
      "Ġsuya": 6628,
      "tamamdir": 6629,
      "ĠkalÄ±cÄ±": 6630,
      "ĠÃľRÃľNLER": 6631,
      "ĠalÄ±nÄ±r": 6632,
      "Ġweb": 6633,
      "ĠÃ§Ã¶zÃ¼lecek": 6634,
      "ĠFakat": 6635,
      "gir": 6636,
      "gesi": 6637,
      "Ġgizem": 6638,
      "Ġsayfa": 6639,
      "Ġtablet": 6640,
      "ĠbaÅŁlatÄ±lmÄ±ÅŁ": 6641,
      "ĠkarÄ±ÅŁtÄ±r": 6642,
      "Ġyinede": 6643,
      "Ġsrc": 6644,
      "212": 6645,
      "gerekli": 6646,
      "ĠMakinesi": 6647,
      "Ġbekleyen": 6648,
      "ĠKulak": 6649,
      "sane": 6650,
      "arda": 6651,
      "ĠyapÄ±lmadÄ±": 6652,
      "ĠistediÄŁinizi": 6653,
      "ĠMen": 6654,
      "Ġedemiyorum": 6655,
      "Ġbedava": 6656,
      "ĠTip": 6657,
      "Ġ:(": 6658,
      "ĠsÄ±ra": 6659,
      "Ġ57": 6660,
      "ĠBayan": 6661,
      "uluÄŁ": 6662,
      "Ġolumlu": 6663,
      "Ġindirimli": 6664,
      "Ġsos": 6665,
      "Ġtabiki": 6666,
      "ĠaraÃ§larda": 6667,
      "Ġvide": 6668,
      "layÄ±p": 6669,
      "LAM": 6670,
      "larÄ±ma": 6671,
      "Ġtaktirde": 6672,
      "yÃ¼z": 6673,
      "led": 6674,
      "Ġirtib": 6675,
      "ĠHem": 6676,
      "ĠkullanÄ±mda": 6677,
      "adÄ±k": 6678,
      "Ġolanlar": 6679,
      "ĠSoft": 6680,
      "Ġgelicek": 6681,
      "Ġkapsam": 6682,
      "ĠAkrilik": 6683,
      "Ġsh": 6684,
      "gro": 6685,
      "kargoya": 6686,
      "Ġâĺºï¸ı": 6687,
      "ĠGÃ¶zlÃ¼ÄŁÃ¼": 6688,
      "Ġvermeye": 6689,
      "ĠtiÅŁÃ¶rt": 6690,
      "dun": 6691,
      "ĠCase": 6692,
      "muy": 6693,
      "Ġxs": 6694,
      "220": 6695,
      "ĠHaz": 6696,
      "ĠTel": 6697,
      "ĠTR": 6698,
      "rim": 6699,
      "ĠÅŁampuan": 6700,
      "ĠinÅŁallah": 6701,
      "ĠyapacaÄŁÄ±z": 6702,
      "ĠrahatlÄ±ÄŁÄ±yla": 6703,
      "Ġyapan": 6704,
      "ĠToz": 6705,
      "ĠÃ§alÄ±ÅŁan": 6706,
      "yse": 6707,
      "ĠsipariÅŁin": 6708,
      "ĠÃ§arp": 6709,
      "ĠÅŁubat": 6710,
      "Ġ2006": 6711,
      "Ġ170": 6712,
      "giz": 6713,
      "Ġemine": 6714,
      "Ġanti": 6715,
      "ĠÃ§ocuÄŁ": 6716,
      "lÄ±ÄŁÄ±n": 6717,
      "ona": 6718,
      "mazsa": 6719,
      "Ã§Ã¼nkÃ¼": 6720,
      "Ġberbat": 6721,
      "uncu": 6722,
      "ĠÃĩorap": 6723,
      "ĠkavuÅŁ": 6724,
      "Ã¼minyum": 6725,
      "Ã¼ks": 6726,
      "ALAR": 6727,
      "lesi": 6728,
      "MAK": 6729,
      "ĠHarika": 6730,
      "Ġdurumunu": 6731,
      "ĠÃĩevirmen": 6732,
      "Ġgamze": 6733,
      "ĠOrijinal": 6734,
      "tc": 6735,
      "Ġdikkatli": 6736,
      "amda": 6737,
      "Ġhangisi": 6738,
      "ĠnumarasÄ±nÄ±n": 6739,
      "Ġdayan": 6740,
      "ĠSÃ¼per": 6741,
      "cesi": 6742,
      "ĠstatÃ¼s": 6743,
      "ekÃ¼r": 6744,
      "layabilirsiniz": 6745,
      "GÃ¶rsel": 6746,
      "ĠÃĸrtÃ¼sÃ¼": 6747,
      "Ġ62": 6748,
      "Ġtrendyoldan": 6749,
      "ĠAir": 6750,
      "ender": 6751,
      "ĠgÃ¶rÃ¼r": 6752,
      "Ġvid": 6753,
      "ĠÃ§Ä±kmÄ±yor": 6754,
      "ĠeÅŁofman": 6755,
      "ĠÃ¶neririm": 6756,
      "aylon": 6757,
      "Ġdekoratif": 6758,
      "Ġdost": 6759,
      "ĠKuÅŁ": 6760,
      "oma": 6761,
      "Ġ140": 6762,
      "kumaÅŁÄ±": 6763,
      "ĠSlim": 6764,
      "__": 6765,
      "ĠKir": 6766,
      "ĠyukarÄ±": 6767,
      "Urun": 6768,
      "ĠkullanÄ±yor": 6769,
      "ĠaktarÄ±lmÄ±ÅŁ": 6770,
      "ĠDil": 6771,
      "Ġhatice": 6772,
      "ace": 6773,
      "ĠÃ§apÄ±": 6774,
      "Ä±za": 6775,
      "250": 6776,
      "dÃ¼k": 6777,
      "ĠUÃ§": 6778,
      "ĠSOL": 6779,
      "Ġ!": 6780,
      "ĠsÃ¶k": 6781,
      "Ġertesi": 6782,
      "cf": 6783,
      "Daha": 6784,
      "Ġka": 6785,
      "Ġtransfer": 6786,
      "ĠHuawei": 6787,
      "leyebilirsiniz": 6788,
      "Ġsim": 6789,
      "eÄŁe": 6790,
      "Ġhayvan": 6791,
      "ash": 6792,
      "brahim": 6793,
      "idan": 6794,
      "ĠyarÄ±m": 6795,
      "cev": 6796,
      "ĠED": 6797,
      "mor": 6798,
      "ĠiÃ§indeki": 6799,
      "aalesef": 6800,
      "Ġcid": 6801,
      "lex": 6802,
      "ĠÄ°lk": 6803,
      "ham": 6804,
      "Opel": 6805,
      "Ġbluz": 6806,
      "ĠaksaklÄ±ktan": 6807,
      "Ġvermem": 6808,
      "Ġpijama": 6809,
      "Ġ41": 6810,
      "Ġsem": 6811,
      "Ġslot": 6812,
      "925": 6813,
      "MAN": 6814,
      "Ġtalebinde": 6815,
      "adas": 6816,
      "ĠEFENDÄ°M": 6817,
      "ĠfermuarlÄ±": 6818,
      "lÄ±ÄŁÄ±na": 6819,
      "Ġsepete": 6820,
      "Ġ[": 6821,
      "stir": 6822,
      "ĠattÄ±m": 6823,
      "LIK": 6824,
      "diven": 6825,
      "ĠgeÃ§meniz": 6826,
      "Ġayarlanabilir": 6827,
      "ĠTiÅŁÃ¶rt": 6828,
      "irken": 6829,
      "Ġbis": 6830,
      "ĠinanÄ±lmaz": 6831,
      "ĠsÄ±vÄ±": 6832,
      "Ġkapatma": 6833,
      "TeÅŁekkÃ¼r": 6834,
      "ĠBÃ¶l": 6835,
      "Ġondan": 6836,
      "Ġrag": 6837,
      "ĠbaÄŁlanarak": 6838,
      "ĠBagaj": 6839,
      "ĠyazÄ±n": 6840,
      "ĠoluÅŁturul": 6841,
      "ĠlÃ¼": 6842,
      "gÃ¶rÃ¼n": 6843,
      "Ġkullanmaya": 6844,
      "Ġ2022": 6845,
      "Ä±tlÄ±": 6846,
      "istal": 6847,
      "ĠKasa": 6848,
      "Ä±yÄ": 6849,
      "Ä±yÄ±": 6850,
      "orb": 6851,
      "adet": 6852,
      "ĠDeniz": 6853,
      "malarÄ": 6854,
      "malarÄ±": 6855,
      "liÄŁinde": 6856,
      "ĠPamuklu": 6857,
      "ĠÃľÃ§": 6858,
      "ele": 6859,
      "Ġadresiniz": 6860,
      "Ġsana": 6861,
      "ĠKahverengi": 6862,
      "140": 6863,
      "ĠÃ¶nem": 6864,
      "ĠEtek": 6865,
      "Ġeklem": 6866,
      "ĠbaÅŁv": 6867,
      "Trendyol": 6868,
      "Ġmanken": 6869,
      "ĠnumarayÄ±": 6870,
      "mÃ¼": 6871,
      "ĠÅŁase": 6872,
      "Pol": 6873,
      "ĠtarafÄ": 6874,
      "ĠtarafÄ±": 6875,
      "Ġ53": 6876,
      "ĠonaylandÄ±ÄŁÄ±": 6877,
      "Ġkork": 6878,
      "Ġaldigim": 6879,
      "Ġ2007": 6880,
      "atin": 6881,
      "ĠBasen": 6882,
      "ĠToner": 6883,
      "Ġekiplerimize": 6884,
      "ĠBilgileri": 6885,
      "ĠYaÄŁÄ±": 6886,
      "ĠDEÄŀ": 6887,
      "ĠyapmÄ±yor": 6888,
      "ĠYuvarlak": 6889,
      "Ġdakik": 6890,
      "ĠsaÄŁlamÄ±ÅŁ": 6891,
      "ĠsÄ±z": 6892,
      "meleri": 6893,
      "Ġbeli": 6894,
      "Ġsordum": 6895,
      "ĠÃ¼rÃ¼nÃ¼mÃ¼": 6896,
      "Ġhac": 6897,
      "Ġ98": 6898,
      "ĠÃ§alÄ±ÅŁmÄ±yor": 6899,
      "ĠsaÃ§ma": 6900,
      "Ġolurmusunuz": 6901,
      "lent": 6902,
      "str": 6903,
      "ĠsaÄŁlÄ±": 6904,
      "olf": 6905,
      "ife": 6906,
      "ĠfotoÄŁraftaki": 6907,
      "abiliyoruz": 6908,
      "ĠedildiÄŁi": 6909,
      "ĠhaftadÄ±r": 6910,
      "ĠAÃ§acak": 6911,
      "ĠCor": 6912,
      "ĠayÄ±rdÄ±ÄŁÄ±nÄ±z": 6913,
      "giliz": 6914,
      "ansman": 6915,
      "ĠbaÅŁlÄ±k": 6916,
      "gÃ¶": 6917,
      "ÅŁen": 6918,
      "ĠType": 6919,
      "ĠcÃ¼zdanÄ±ma": 6920,
      "ĠalmayÄ±": 6921,
      "ĠGÃĸN": 6922,
      "tÄ±ÄŁÄ±mda": 6923,
      "ĠBlue": 6924,
      "alitesi": 6925,
      "ganiz": 6926,
      "Ġap": 6927,
      "Ä°LM": 6928,
      "Ġ2005": 6929,
      "ecegim": 6930,
      "ĠdeÄŁiÅŁimi": 6931,
      "intage": 6932,
      "erhal": 6933,
      "Ġtabak": 6934,
      "ĠÃ§ant": 6935,
      "Ġbiliyorum": 6936,
      "Ġalmistim": 6937,
      "ĠKrom": 6938,
      "milla": 6939,
      "ĠbaÅŁladÄ±": 6940,
      "Ġkaydet": 6941,
      "etim": 6942,
      "Ġderin": 6943,
      "ĠkalÄ±yor": 6944,
      "Ġsac": 6945,
      "teÅŁ": 6946,
      "acaksÄ±nÄ±z": 6947,
      "Ã¼nÃ¼n": 6948,
      "eÅŁim": 6949,
      "ĠKoleksiyon": 6950,
      "Bil": 6951,
      "Ġoran": 6952,
      "PS": 6953,
      "ars": 6954,
      "LET": 6955,
      "ĠkalÄ±nlÄ±ÄŁÄ±": 6956,
      "Ġemre": 6957,
      "ĠÃ¼retici": 6958,
      "kaliteli": 6959,
      "ĠyÃ¼r": 6960,
      "rÄ±nÄ±z": 6961,
      "ĠsÃ¶zleÅŁ": 6962,
      "Ġvol": 6963,
      "Ġdelik": 6964,
      "ild": 6965,
      "Ġciv": 6966,
      "Ġwidth": 6967,
      "Ġyerinde": 6968,
      "ĠefendÄ±m": 6969,
      "ĠBez": 6970,
      "ĠgÃ¶rÃ¼ÅŁtÃ¼m": 6971,
      "Ġgramaj": 6972,
      "imum": 6973,
      "ocam": 6974,
      "Cam": 6975,
      "ĠLove": 6976,
      "ĠÅŀort": 6977,
      "cat": 6978,
      "ĠdaÄŁ": 6979,
      "antel": 6980,
      "ĠburadayÄ±m": 6981,
      "Ġ88": 6982,
      "ĠÅŁeyi": 6983,
      "Ġgarantilidir": 6984,
      "Kan": 6985,
      "ura": 6986,
      "Ġta": 6987,
      "ĠsÄ±rt": 6988,
      "ĠDem": 6989,
      "Ġlazim": 6990,
      "Ġse": 6991,
      "unku": 6992,
      "ecem": 6993,
      "ĠPolo": 6994,
      "Ġtas": 6995,
      "Ġsip": 6996,
      "ĠKg": 6997,
      "Ġislem": 6998,
      "Ġ2000": 6999,
      "Ġhizmetleri": 7000,
      "ĠsÄ±kÄ": 7001,
      "ĠsÄ±kÄ±": 7002,
      "ĠgÃ¶rÃ¼ÅŁerek": 7003,
      "INI": 7004,
      "Ġmobil": 7005,
      "Ġbacak": 7006,
      "Ġtelefonunuza": 7007,
      "MERHABA": 7008,
      "Ġragmen": 7009,
      "ĠPoster": 7010,
      "Ġiletmenizi": 7011,
      "Ã¼rÃ¼zsÃ¼z": 7012,
      "Ä±sÄ±na": 7013,
      "ĠSist": 7014,
      "ĠDir": 7015,
      "amadÄ±": 7016,
      "ĠanlaÅŁmalÄ±": 7017,
      "Fiat": 7018,
      "ĠÅŁikayetinizi": 7019,
      "ĠLansman": 7020,
      "ĠonaylanmasÄ±": 7021,
      "DEN": 7022,
      "Ġbakarak": 7023,
      "ĠKW": 7024,
      "kuaz": 7025,
      "ĠInÃ§": 7026,
      "Ah": 7027,
      "Ġbilgilerini": 7028,
      "eci": 7029,
      "ALÄ°": 7030,
      "ĠGÃĸNDER": 7031,
      "ĠanlayamadÄ±m": 7032,
      "Ġbasen": 7033,
      "ĠsipariÅŁimin": 7034,
      "ĠMag": 7035,
      "Ġidi": 7036,
      "liydi": 7037,
      "ĠRENK": 7038,
      "buy": 7039,
      "Ġedersiniz": 7040,
      "air": 7041,
      "Ã¶rÃ¼": 7042,
      "ĠiÃ§erik": 7043,
      "kury": 7044,
      "ilal": 7045,
      "efes": 7046,
      "ĠMay": 7047,
      "ĠeÄŁlenceli": 7048,
      "uygulama": 7049,
      "baÅŁÄ": 7050,
      "baÅŁÄ±": 7051,
      "ĠfirmanÄ±n": 7052,
      "dc": 7053,
      "Ġokuy": 7054,
      "ĠDÃ¼ÅŁ": 7055,
      "Ġbede": 7056,
      "Ġ2014": 7057,
      "Top": 7058,
      "ĠaslÄ±nda": 7059,
      "ĠKapaklÄ±": 7060,
      "ĠEL": 7061,
      "Ġlistelen": 7062,
      "Ġpazar": 7063,
      "kend": 7064,
      "ady": 7065,
      "ĠMutfak": 7066,
      "ĠgÃ¶rdÃ¼ÄŁ": 7067,
      "ĠyaÄŁmur": 7068,
      "Ġhizli": 7069,
      "Ġ125": 7070,
      "Ġ2013": 7071,
      "asite": 7072,
      "Ġoradan": 7073,
      "act": 7074,
      "tane": 7075,
      "ĠhasarlÄ±": 7076,
      "ĠKelebek": 7077,
      "ĠARKA": 7078,
      "anabilir": 7079,
      "Ġleke": 7080,
      "ĠambalajÄ": 7081,
      "ĠambalajÄ±": 7082,
      "tiler": 7083,
      "ENÄ°Z": 7084,
      "KÄ±rmÄ±zÄ±": 7085,
      "Ġilgi": 7086,
      "ÃľrÃ¼nlerimiz": 7087,
      "dak": 7088,
      "acam": 7089,
      "ĠonayÄ": 7090,
      "ĠonayÄ±": 7091,
      "ĠyavaÅŁ": 7092,
      "ÃľT": 7093,
      "Ġyorumlara": 7094,
      "Ġveren": 7095,
      "ĠTok": 7096,
      "Ġkartim": 7097,
      "akter": 7098,
      "akt": 7099,
      "Ġ2009": 7100,
      "ĠistemiÅŁtim": 7101,
      "ĠmaÄŁazaya": 7102,
      "adde": 7103,
      "ĠgÃ¼cÃ¼": 7104,
      "uÃ§uk": 7105,
      "ĠsaygÄ±": 7106,
      "deri": 7107,
      "Ġseviy": 7108,
      "Ä°PAR": 7109,
      "gerÃ§ekten": 7110,
      "Ġjel": 7111,
      "ĠsÃ¶ylem": 7112,
      "Ġkapasit": 7113,
      "Ġgaliba": 7114,
      "lanÄ±r": 7115,
      "ĠtamamÄ±": 7116,
      "amadim": 7117,
      "ĠanlayÄ±ÅŁÄ±nÄ±za": 7118,
      "ĠbaÅŁlÄ±ÄŁÄ±ndan": 7119,
      "ĠyanlÄ±ÅŁlÄ±k": 7120,
      "ĠanÄ±nda": 7121,
      "ĠBoyama": 7122,
      "Ä±nÄ±zla": 7123,
      "Ġgib": 7124,
      "ĠHamur": 7125,
      "Ġgelmesini": 7126,
      "ĠgÃ¶rÃ¼ÅŁecek": 7127,
      "egori": 7128,
      "iyordum": 7129,
      "iyla": 7130,
      "ĠaÃ§Ä±lan": 7131,
      "Ġ2011": 7132,
      "Ġmay": 7133,
      "larÄ±yla": 7134,
      "ĠLens": 7135,
      "Ġihtimal": 7136,
      "Ġmodern": 7137,
      "ĠKom": 7138,
      "red": 7139,
      "Ġverdik": 7140,
      "beni": 7141,
      "Ġpaketlem": 7142,
      "dÄ±ÄŁÄ±nÄ±zÄ": 7143,
      "dÄ±ÄŁÄ±nÄ±zÄ±": 7144,
      "ĠCÃ¼zdan": 7145,
      "ĠyapÄ±n": 7146,
      "ĠdÄ±ÅŁarÄ±": 7147,
      "eÄŁin": 7148,
      "ĠsipariÅŁimde": 7149,
      "YÃ¼ksek": 7150,
      "Ġbulunur": 7151,
      "maalesef": 7152,
      "ĠkaÃ§Ä±r": 7153,
      "yada": 7154,
      "malÄ±k": 7155,
      "ĠHava": 7156,
      "Ġtarihleri": 7157,
      "Ġvericem": 7158,
      "Ġtaksitli": 7159,
      "gelen": 7160,
      "lamalÄ±": 7161,
      "ĠaskÄ±ya": 7162,
      "Ġindirimi": 7163,
      "ĠDesign": 7164,
      "Su": 7165,
      "akmak": 7166,
      "Ġetkil": 7167,
      "ĠvÃ¼cu": 7168,
      "Ġheight": 7169,
      "ĠgÃ¶nderiyorsunuz": 7170,
      "Ġmarketten": 7171,
      "ĠsÄ±rasÄ±nda": 7172,
      "ĠseÃ§imi": 7173,
      "ĠIS": 7174,
      "thal": 7175,
      "ĠIÅŁÄ±k": 7176,
      "Ġvermeniz": 7177,
      "ĠÅŁansÄ±nÄ±z": 7178,
      "Ġilerleyen": 7179,
      "ĠsÃ¶yledi": 7180,
      "ĠaradÄ±m": 7181,
      "Ä°PARÄ°Åŀ": 7182,
      "Ġnes": 7183,
      "Ġkahv": 7184,
      "ĠPat": 7185,
      "ĠtanÄ±ÅŁ": 7186,
      "ĠsÃ¼rece": 7187,
      "LÃĩÃľ": 7188,
      "Ġayakkab": 7189,
      "SÄ°NÄ°Z": 7190,
      "hite": 7191,
      "Ġiadenizin": 7192,
      "dayÄ±m": 7193,
      "ĠGec": 7194,
      "Ġverilecektir": 7195,
      "ĠSprey": 7196,
      "Ev": 7197,
      "ĠBe": 7198,
      "Uyumlu": 7199,
      "Ġdegi": 7200,
      "dunuz": 7201,
      "Ġdiyorsunuz": 7202,
      "ĠKON": 7203,
      "rek": 7204,
      "ier": 7205,
      "Ġcin": 7206,
      "Redmi": 7207,
      "Ġkremi": 7208,
      "Ġminik": 7209,
      "Dek": 7210,
      "ÅŁei": 7211,
      "ĠbazlÄ±": 7212,
      "ĠanladÄ±m": 7213,
      "geleri": 7214,
      "table": 7215,
      "ĠTÃ¼y": 7216,
      "ĠtaraflÄ±": 7217,
      "Ġkorun": 7218,
      "ĠgÃ¶ndermek": 7219,
      "osiklet": 7220,
      "ĠSuni": 7221,
      "ĠdÃ¼zgÃ¼n": 7222,
      "ĠDiz": 7223,
      "ĠÃ§alÄ±ÅŁÄ±yorum": 7224,
      "ino": 7225,
      "ĠEvet": 7226,
      "lip": 7227,
      "rr": 7228,
      "urkan": 7229,
      "mamaktadÄ±r": 7230,
      "Ġindirimde": 7231,
      "ĠTo": 7232,
      "ĠsaÄŁlayabilmem": 7233,
      "ĠdÃ¼ÅŁtÃ¼": 7234,
      "ubu": 7235,
      "lidir": 7236,
      "Ġbalon": 7237,
      "que": 7238,
      "ĠKARGO": 7239,
      "Ġiyiyim": 7240,
      "ĠZemin": 7241,
      "Ġmod": 7242,
      "ĠStr": 7243,
      "Ġiptalini": 7244,
      "ebe": 7245,
      "ity": 7246,
      "ĠCr": 7247,
      "ĠLik": 7248,
      "ĠtÃ¼rÃ¼": 7249,
      "amazsÄ±nÄ±z": 7250,
      "Ã¼mey": 7251,
      "lm": 7252,
      "ĠJant": 7253,
      "ĠGiyim": 7254,
      "ĠgeÃ§menizi": 7255,
      "GerÃ§ekten": 7256,
      "Ġebru": 7257,
      "asual": 7258,
      "ĠKesim": 7259,
      "gonomik": 7260,
      "ĠUSB": 7261,
      "tikten": 7262,
      "--------------------------------": 7263,
      "Ġsoruyorum": 7264,
      "Ġserisi": 7265,
      "Ġ63": 7266,
      "ĠmesajÄ": 7267,
      "ĠmesajÄ±": 7268,
      "ĠyaÅŁÄ±yorum": 7269,
      "Ġdefolu": 7270,
      "ĠkullanmÄ±ÅŁ": 7271,
      "ĠmÃ¼ÅŁteriye": 7272,
      "stil": 7273,
      "Ã¼seyin": 7274,
      "DÄ°": 7275,
      "efendi": 7276,
      "Ġettiniz": 7277,
      "manÄ±za": 7278,
      "Ġederseniz": 7279,
      "ĠPop": 7280,
      "Ġiseniz": 7281,
      "ĠKOL": 7282,
      "dÃ¼z": 7283,
      "ĠihtiyaÃ§": 7284,
      "Ġazal": 7285,
      "ĠGru": 7286,
      "ediy": 7287,
      "arkodu": 7288,
      "uval": 7289,
      "ĠÃ¶mr": 7290,
      "ĠPas": 7291,
      "ĠFir": 7292,
      "Ġlakin": 7293,
      "ĠDiler": 7294,
      "Ġelimizden": 7295,
      "ĠalÄ±cam": 7296,
      "Ä°ndirim": 7297,
      "ĠKab": 7298,
      "aÄŁa": 7299,
      "uj": 7300,
      "ĠadÄ±nÄ±za": 7301,
      "ĠKollu": 7302,
      "ĠAnt": 7303,
      "Ġedilemedi": 7304,
      "ĠaydÄ±r": 7305,
      "Ġelbette": 7306,
      "ĠtuÄŁba": 7307,
      "ABÄ°LÄ°R": 7308,
      "Ã¼zÃ¼lerek": 7309,
      "±fÄ±r": 7310,
      "Ä±fÄ±r": 7311,
      "Ġuzer": 7312,
      "Ġrak": 7313,
      "ĠaralÄ±ÄŁÄ±nda": 7314,
      "ĠalanÄ": 7315,
      "ĠalanÄ±": 7316,
      "ĠCon": 7317,
      "ĠYet": 7318,
      "herhangi": 7319,
      "ELÄ°": 7320,
      "gÄ±n": 7321,
      "Sel": 7322,
      "GÃ¶": 7323,
      "Ġekledim": 7324,
      "Ġyolla": 7325,
      "apka": 7326,
      "ĠTemalÄ±": 7327,
      "ĠQu": 7328,
      "veri": 7329,
      "merh": 7330,
      "ĠoluÅŁturmuÅŁ": 7331,
      "atÄ±c": 7332,
      "Ġfena": 7333,
      "ĠaldÄ±r": 7334,
      "ĠBrandasÄ±": 7335,
      "Ġolabilmek": 7336,
      "Ġkontrolleri": 7337,
      "Ġilan": 7338,
      "umuÅŁacÄ±k": 7339,
      "Ġcuma": 7340,
      "ĠdilediÄŁiniz": 7341,
      "ĠsÄ±nÄ±r": 7342,
      "ĠEli": 7343,
      "ation": 7344,
      "Ġmuham": 7345,
      "Ġ99": 7346,
      "Ġrestoran": 7347,
      "miyiz": 7348,
      "ADE": 7349,
      "ĠyansÄ±r": 7350,
      "Asus": 7351,
      "Ġfig": 7352,
      "AJ": 7353,
      "memektedir": 7354,
      "Ġbutonu": 7355,
      "ents": 7356,
      "Ġistemeyiz": 7357,
      "ĠBanyo": 7358,
      "kim": 7359,
      "Ġharf": 7360,
      "ĠbirleÅŁtir": 7361,
      "170": 7362,
      "Ġfilm": 7363,
      "Ġkodunuz": 7364,
      "!!!": 7365,
      "BÃ¼yÃ¼k": 7366,
      "ĠÃĩalÄ±ÅŁ": 7367,
      "ĠkÄ±smÄ±nÄ±": 7368,
      "isan": 7369,
      "ĠÃĸzellikler": 7370,
      "demi": 7371,
      "itr": 7372,
      "ĠgÃ¶nderildiÄŁi": 7373,
      "Ã§uk": 7374,
      "cik": 7375,
      "ĠdÃ¶rt": 7376,
      "ilmedi": 7377,
      "ĠBit": 7378,
      "Ġila": 7379,
      "Ġburda": 7380,
      "ĠfiyatÄ±nÄ±": 7381,
      "ĠTrend": 7382,
      "istik": 7383,
      "ĠÃ¶nceden": 7384,
      "ĠsatÄ±cÄ±dan": 7385,
      "ĠdÄ±ÅŁÄ": 7386,
      "ĠdÄ±ÅŁÄ±": 7387,
      "liÄŁini": 7388,
      "Ġyusuf": 7389,
      "Ġkokuyor": 7390,
      "Ġederken": 7391,
      "Ġurunler": 7392,
      "AST": 7393,
      "pil": 7394,
      "ĠGrubu": 7395,
      "Ġadresime": 7396,
      "leyip": 7397,
      "ĠAmp": 7398,
      "ĠÃ¶nlem": 7399,
      "ĠAN": 7400,
      "fd": 7401,
      "Ġverdikten": 7402,
      "firma": 7403,
      "ĠaktarÄ±mÄ±": 7404,
      "ith": 7405,
      "ĠÅŁekli": 7406,
      "birde": 7407,
      "ĠdÃ¼zenli": 7408,
      "Ġkablosu": 7409,
      "Ġeve": 7410,
      "ĠTayt": 7411,
      "cakla": 7412,
      "ĠMicro": 7413,
      "larÄ±nÄ±za": 7414,
      "Ġadresini": 7415,
      "nn": 7416,
      "Ġbe": 7417,
      "ĠTunik": 7418,
      "Ġmini": 7419,
      "ĠKaÄŁÄ±dÄ±": 7420,
      "ĠolsaydÄ±": 7421,
      "Ġhissi": 7422,
      "alÄ±n": 7423,
      "ĠNormal": 7424,
      "iÅŁkin": 7425,
      "ĠkarÅŁÄ±nÄ±za": 7426,
      "ĠÄ±c": 7427,
      "mar": 7428,
      "oÄŁlu": 7429,
      "ĠTrans": 7430,
      "niversal": 7431,
      "ilere": 7432,
      "Ġbuz": 7433,
      "irli": 7434,
      "ĠsaÄŁlayÄ±p": 7435,
      "ĠbeklediÄŁimden": 7436,
      "ĠâĢĺ": 7437,
      "Ġoku": 7438,
      "Ġogren": 7439,
      "ĠGarantilidir": 7440,
      "erken": 7441,
      "CI": 7442,
      "Ġalmaya": 7443,
      "ĠacÄ±": 7444,
      "ĠbÃ¶lÃ¼mÃ¼": 7445,
      "Ġistiyoruz": 7446,
      "ĠdÃ¶": 7447,
      "ĠtedarikÃ§imize": 7448,
      "Ġmahallesi": 7449,
      "erime": 7450,
      "Ġyollay": 7451,
      "Ġ49": 7452,
      "Ġkesinlik": 7453,
      "Ġ...": 7454,
      "210": 7455,
      "oÄŁunluk": 7456,
      "ĠolduÄŁumuz": 7457,
      "ĠPort": 7458,
      "ĠHort": 7459,
      "umartesi": 7460,
      "ĠÄ°p": 7461,
      "ĠOrganik": 7462,
      "ĠalamÄ±yorum": 7463,
      "ĠsipariÅŁe": 7464,
      "130": 7465,
      "ultan": 7466,
      "Ġidare": 7467,
      "miÅŁtim": 7468,
      "±st": 7469,
      "Ġyaptim": 7470,
      "Ä±st": 7471,
      "ĠkÄ±sÄ±mda": 7472,
      "Ġ130": 7473,
      "Kesinlikle": 7474,
      "ĠFotoÄŁraf": 7475,
      "ĠgÃ¶remedim": 7476,
      "ĠÃ¼retilen": 7477,
      "Ä±rsanÄ±z": 7478,
      "ĠARAC": 7479,
      "Ġugr": 7480,
      "lantÄ±": 7481,
      "ĠHÄ±rka": 7482,
      "Ġ68": 7483,
      "Ġburcu": 7484,
      "ĠET": 7485,
      "Ġdamla": 7486,
      "ÃľÅŀ": 7487,
      "ĠalamadÄ±m": 7488,
      "engin": 7489,
      "Ġuygunmu": 7490,
      "Ġgelecektir": 7491,
      "kurye": 7492,
      "ĠGer": 7493,
      "Ġnez": 7494,
      "anlÄ±": 7495,
      "ĠARAÃĩ": 7496,
      "ayim": 7497,
      "yundai": 7498,
      "ĠEfendim": 7499,
      "ĠedilemediÄŁi": 7500,
      "ĠBisiklet": 7501,
      "Ġto": 7502,
      "ct": 7503,
      "Ġdiger": 7504,
      "Ġelimizde": 7505,
      "Ä±par": 7506,
      "abia": 7507,
      "ahÃ§e": 7508,
      "Ġharic": 7509,
      "ediÄŁinizi": 7510,
      "ĠÅŁube": 7511,
      "ĠKarg": 7512,
      "Ġmonte": 7513,
      "anÄ±zÄ±n": 7514,
      "Ġ47": 7515,
      "azer": 7516,
      "topedik": 7517,
      "Ġpaketlemesi": 7518,
      "imal": 7519,
      "hediye": 7520,
      "Ġiadeyi": 7521,
      "Ġkampanyalar": 7522,
      "Peugeot": 7523,
      "Ġbor": 7524,
      "Ġburaya": 7525,
      "Ġmuyuz": 7526,
      "Ġbedenini": 7527,
      "kt": 7528,
      "Ġgerektir": 7529,
      "Ġran": 7530,
      "Ġtarihler": 7531,
      "ĠvÃ¼cut": 7532,
      "Ġoluyordur": 7533,
      "Biraz": 7534,
      "Ġakrilik": 7535,
      "sipariÅŁi": 7536,
      "olata": 7537,
      "ĠZirkon": 7538,
      "tÅŁk": 7539,
      "doÄŁ": 7540,
      "Ġ77": 7541,
      "fiÅŁ": 7542,
      "imda": 7543,
      "ĠfotoÄŁrafta": 7544,
      "Ġdurumla": 7545,
      "TÃ¼rk": 7546,
      "Ġbanyo": 7547,
      "lilik": 7548,
      "ĠbÃ¶lÃ¼mÃ¼nde": 7549,
      "ĠboyutlarÄ±": 7550,
      "form": 7551,
      "edya": 7552,
      "ĠiÅŁler": 7553,
      "Ġdeter": 7554,
      "lev": 7555,
      "ĠbÄ±Ã§ak": 7556,
      "Ġtsk": 7557,
      "Ġsweatshirt": 7558,
      "Ġelimize": 7559,
      "ĠMÄ±knatÄ±slÄ±": 7560,
      "Ġfermuar": 7561,
      "ĠHediyelik": 7562,
      "Ġengeller": 7563,
      "yalar": 7564,
      "ekip": 7565,
      "ĠPoco": 7566,
      "andÄ±r": 7567,
      "ĠaktarÄ±lÄ±r": 7568,
      "rah": 7569,
      "ĠÅŁehir": 7570,
      "ds": 7571,
      "Ġfaydalan": 7572,
      "ĠSÃ¼s": 7573,
      "ĠMontaj": 7574,
      "irme": 7575,
      "ĠSimli": 7576,
      "Ġmodelleri": 7577,
      "daÅŁÄ±ma": 7578,
      "Ġdaire": 7579,
      "ĠyoÄŁunluktan": 7580,
      "ily": 7581,
      "bizler": 7582,
      "Kah": 7583,
      "Ġelite": 7584,
      "ebilecek": 7585,
      "ĠaÄŁÄ±rlÄ±ÄŁÄ±": 7586,
      "ĠEN": 7587,
      "Bekl": 7588,
      "ĠBarkod": 7589,
      "Ġedemiyoruz": 7590,
      "gÃ¼ncel": 7591,
      "ĠimkanÄ": 7592,
      "ĠimkanÄ±": 7593,
      "Ä±nabilir": 7594,
      "ĠÃĩay": 7595,
      "ĠistiyorsanÄ±z": 7596,
      "ĠKadife": 7597,
      "ĠÄ°nce": 7598,
      "ĠkolaylÄ±kla": 7599,
      "kul": 7600,
      "lamalar": 7601,
      "Ġuzat": 7602,
      "Ġdeterj": 7603,
      "pik": 7604,
      "ĠpaketlenmiÅŁti": 7605,
      "Ġkalitesini": 7606,
      "Ġdogru": 7607,
      "ĠyazÄ±yorum": 7608,
      "ĠSÄ°PARÄ°Åŀ": 7609,
      "dy": 7610,
      "ĠbeÄŁenerek": 7611,
      "):": 7612,
      "Ġ59": 7613,
      "osyon": 7614,
      "ĠyapÄ±ÅŁkan": 7615,
      "ĠTeknik": 7616,
      "bih": 7617,
      "fb": 7618,
      "ĠulaÅŁÄ±m": 7619,
      "Ã§in": 7620,
      "ĠOut": 7621,
      "ĠNesil": 7622,
      "eÅŁtir": 7623,
      "Ġseda": 7624,
      "ĠÅŁubesine": 7625,
      "Honda": 7626,
      "Ġvaktiniz": 7627,
      "Ġtablo": 7628,
      "iliÄŁ": 7629,
      "Ä°MÄ°Z": 7630,
      "ĠdoÄŁrudan": 7631,
      "Ġsivil": 7632,
      "Ġstr": 7633,
      "Ġdos": 7634,
      "Ġ2004": 7635,
      "ĠElas": 7636,
      "ech": 7637,
      "Ä±mÄ±n": 7638,
      "ĠFermuarlÄ±": 7639,
      "ool": 7640,
      "ĠÅŀiÅŁ": 7641,
      "Yeni": 7642,
      "tegrasyon": 7643,
      "Ġkibar": 7644,
      "Ġtalebinizin": 7645,
      "eytin": 7646,
      "etro": 7647,
      "Ġkomp": 7648,
      "itro": 7649,
      "Ä±rh": 7650,
      "Ġadreste": 7651,
      "doc": 7652,
      "Ġcoz": 7653,
      "Ġbirime": 7654,
      "ĠUnisex": 7655,
      "ĠÃ¶demeler": 7656,
      "konuyla": 7657,
      "105": 7658,
      "Ġsoluk": 7659,
      "Ä±mÄ±zda": 7660,
      "BayÄ±ldÄ±m": 7661,
      "ĠkÃ¶pek": 7662,
      "ĠyaÅŁa": 7663,
      "mayin": 7664,
      "ĠKesinlikle": 7665,
      "Ġnerden": 7666,
      "ĠâĿ¤ï¸ı": 7667,
      "ĠolduÄŁunda": 7668,
      "UY": 7669,
      "dana": 7670,
      "ĠtaÅŁÄ±y": 7671,
      "ĠseÃ§erek": 7672,
      "ĠkullanÄ±lmaktadÄ±r": 7673,
      "ĠÅŁeker": 7674,
      "uyoruz": 7675,
      "ĠfazlasÄ±": 7676,
      "ĠKarbon": 7677,
      "ehr": 7678,
      "ĠparÃ§alarÄ±": 7679,
      "Ġolurdu": 7680,
      "RO": 7681,
      "SaÄŁ": 7682,
      "dÄ±ÄŁÄ±mÄ±": 7683,
      "Ġgorunuyor": 7684,
      "ĠSaksÄ±": 7685,
      "Ġsiparisi": 7686,
      "bey": 7687,
      "Ġsertifik": 7688,
      "antaj": 7689,
      "Ġsoruluk": 7690,
      "ĠStar": 7691,
      "ĠÄ±slak": 7692,
      "ÃľrÃ¼nÃ¼m": 7693,
      "eyecektir": 7694,
      "gl": 7695,
      "ĠarkadaÅŁlar": 7696,
      "Ġbelirttim": 7697,
      "yoksa": 7698,
      "ĠYazÄ±cÄ±": 7699,
      "ĠÃ¶mer": 7700,
      "ĠÃ§Ä±kacaktÄ±r": 7701,
      "ĠÃľRET": 7702,
      "amadÄ±k": 7703,
      "ĠyarÄ": 7704,
      "ĠyarÄ±": 7705,
      "ansu": 7706,
      "ush": 7707,
      "ĠgÃ¶nderm": 7708,
      "ĠaÃ§tÄ±m": 7709,
      "Ġhisset": 7710,
      "limat": 7711,
      "ÄŁn": 7712,
      "ĠkÃ¼pe": 7713,
      "Ġbenzeri": 7714,
      "ĠLas": 7715,
      "Ġperde": 7716,
      "ĠÃ§ekme": 7717,
      "ĠparamÄ±": 7718,
      "ĠÃĩerÃ§eve": 7719,
      "Ġkararma": 7720,
      "ligi": 7721,
      "Ġif": 7722,
      "sy": 7723,
      "ĠaldÄ±ÄŁÄ±": 7724,
      "Ġbelge": 7725,
      "Gar": 7726,
      "Ġ???": 7727,
      "ĠÅŁubesi": 7728,
      "mo": 7729,
      "memnuniyetle": 7730,
      "ĠRo": 7731,
      "ĠyÄ±ldÄ±zlÄ±": 7732,
      "ĠkalÄ±r": 7733,
      "Ġithal": 7734,
      "ĠkÄ±rÄ±l": 7735,
      "Ġklasik": 7736,
      "Ġgeceler": 7737,
      "Ġrenklerde": 7738,
      "Ġgelmektedir": 7739,
      "ĠÃľstÃ¼": 7740,
      "Ġbilin": 7741,
      "ĠÃ¶y": 7742,
      "ĠgÃ¶zlÃ¼k": 7743,
      "Ġisteyecek": 7744,
      "Ġgelince": 7745,
      "Ġnemlendir": 7746,
      "ĠparasÄ±": 7747,
      "RE": 7748,
      "Ġraporu": 7749,
      "abet": 7750,
      "Ġtemizlik": 7751,
      "ĠAyarlanabilir": 7752,
      "Ġisteriz": 7753,
      "Ã¼skÃ¼l": 7754,
      "±b": 7755,
      "Ä±b": 7756,
      "rupa": 7757,
      "ĠdÄ±r": 7758,
      "ĠÃĩamaÅŁÄ±r": 7759,
      "ĠTarih": 7760,
      "Ġhey": 7761,
      "Ġanahtar": 7762,
      "Tamam": 7763,
      "zat": 7764,
      "Ġyenilen": 7765,
      "eÄŁiniz": 7766,
      "Ġprogr": 7767,
      "ĠgÃ¶rÃ¼ntÃ¼lem": 7768,
      "Ġdinliyorum": 7769,
      "Ġzahmet": 7770,
      "ĠTerlik": 7771,
      "ĠkÄ±sÄ±mlarÄ±": 7772,
      "ĠKoÅŁ": 7773,
      "EÅŁ": 7774,
      "Ġmar": 7775,
      "ĠtarafÄ±ma": 7776,
      "ildim": 7777,
      "icak": 7778,
      "yem": 7779,
      "Ġgelip": 7780,
      "yer": 7781,
      "ĠResim": 7782,
      "Ġkullanarak": 7783,
      "Ġbizden": 7784,
      "ĠgÃ¶rÃ¼nen": 7785,
      "esem": 7786,
      "ĠBÄ": 7787,
      "Ġduygu": 7788,
      "ĠhesabÄ±nÄ±zdan": 7789,
      "ĠBÄ±": 7790,
      "elike": 7791,
      "Ġgelirse": 7792,
      "ĠKategori": 7793,
      "ĠdeÄŁilse": 7794,
      "unus": 7795,
      "Ġayakkabi": 7796,
      "ĠKaÅŁ": 7797,
      "Ä±sÄ±yla": 7798,
      "diÄŁinizde": 7799,
      "ĠulaÅŁamÄ±yorum": 7800,
      "Ġmakinesinde": 7801,
      "smanlÄ±": 7802,
      "ann": 7803,
      "ĠHakiki": 7804,
      "Ġdegis": 7805,
      "ĠyurtiÃ§i": 7806,
      "ĠElektronik": 7807,
      "ĠÃľrÃ¼nleri": 7808,
      "Ġnumaraya": 7809,
      "Ġacik": 7810,
      "sj": 7811,
      "Ġedilerek": 7812,
      "ĠkatÄ±lÄ±p": 7813,
      "Ġyasemin": 7814,
      "merch": 7815,
      "lÄ±kta": 7816,
      "ecer": 7817,
      "has": 7818,
      "ĠaltÄ±ndadÄ±r": 7819,
      "uÄŁu": 7820,
      "ĠtakÄ±p": 7821,
      "ĠÃ¶l": 7822,
      "ĠmÃ¼dÃ¼r": 7823,
      "Ġisimli": 7824,
      "Ġyerleri": 7825,
      "Ġtavsiy": 7826,
      "ĠKalÃ§a": 7827,
      "ĠyÄ±rtÄ±k": 7828,
      "ĠInce": 7829,
      "ĠDokun": 7830,
      "ĠÃĸlÃ§Ã¼ler": 7831,
      "ĠkiÅŁisel": 7832,
      "TI": 7833,
      "ayÄ±cÄ±": 7834,
      "ĠDijital": 7835,
      "ĠKumaÅŁÄ±": 7836,
      "Ġ600": 7837,
      "Av": 7838,
      "Ġveriyoruz": 7839,
      "±ÄŁÄ±": 7840,
      "Ä±ÄŁÄ±": 7841,
      "Ġdarbelere": 7842,
      "MÃ¼kemmel": 7843,
      "rm": 7844,
      "eski": 7845,
      "els": 7846,
      "Ter": 7847,
      "ĠiÅŁi": 7848,
      "SAN": 7849,
      "ĠTEK": 7850,
      "Ã¶deme": 7851,
      "Ġharc": 7852,
      "Ġah": 7853,
      "ĠSar": 7854,
      "ĠalÄ±ndÄ±ÄŁÄ±nÄ±": 7855,
      "Ġterlik": 7856,
      "Ġalabilirim": 7857,
      "ĠTan": 7858,
      "Ġkendisi": 7859,
      "kesin": 7860,
      "lerimizi": 7861,
      "ĠoluÅŁturulmuÅŁ": 7862,
      "Ã¼f": 7863,
      "ĠyÄ±kayÄ±nÄ±z": 7864,
      "ĠlistelenmiÅŁtir": 7865,
      "enizde": 7866,
      "Ġstokta": 7867,
      "Ġgiderilmesi": 7868,
      "ĠsÃ¶ylÃ¼yor": 7869,
      "alÄ±dÄ±r": 7870,
      "Ġkahverengi": 7871,
      "pu": 7872,
      "color": 7873,
      "masÄ±nda": 7874,
      "Ġ/><": 7875,
      "Ġkurulumu": 7876,
      "Ġfatih": 7877,
      "umune": 7878,
      "ĠTah": 7879,
      "Tak": 7880,
      "ĠKabl": 7881,
      "ĠÃ§Ä±t": 7882,
      "kisi": 7883,
      "Ġkelimeyle": 7884,
      "trasit": 7885,
      "ĠKÄ±ÅŁ": 7886,
      "ĠFar": 7887,
      "ĠModelin": 7888,
      "ĠKilo": 7889,
      "Ġteker": 7890,
      "izmet": 7891,
      "Ġmart": 7892,
      "Ġizninizle": 7893,
      "ĠPerde": 7894,
      "ĠÃĩizgili": 7895,
      "ĠparÃ§anÄ±n": 7896,
      "tiv": 7897,
      "ĠdÃ¶nemde": 7898,
      "Ġtamir": 7899,
      "ĠBU": 7900,
      "ĠUYG": 7901,
      "Paketleme": 7902,
      "Ġedilmez": 7903,
      "Ġadresine": 7904,
      "nasil": 7905,
      "sol": 7906,
      "ĠalmaktadÄ±r": 7907,
      "Kolay": 7908,
      "Ġedeyim": 7909,
      "ĠendiÅŁ": 7910,
      "ayabilirsiniz": 7911,
      "Ġdekor": 7912,
      "ĠMac": 7913,
      "ayÄ±f": 7914,
      "ĠÃ¶rnek": 7915,
      "ĠbalÄ±k": 7916,
      "ĠAkÄ±llÄ±": 7917,
      "hteÅŁem": 7918,
      "003": 7919,
      "odeli": 7920,
      "Ġdenk": 7921,
      "ĠhatÄ±rlat": 7922,
      "Ġiken": 7923,
      "ĠSÃ¼rgÃ¼lÃ¼": 7924,
      "uments": 7925,
      "Ġ97": 7926,
      "osch": 7927,
      "Ġbekliyoruz": 7928,
      "ĠyapalÄ±m": 7929,
      "Ġlin": 7930,
      "ĠKim": 7931,
      "ĠBer": 7932,
      "ĠðŁĻı": 7933,
      "irmez": 7934,
      "SaÃ§": 7935,
      "kampanya": 7936,
      "ĠfiyatlÄ±": 7937,
      "ĠSAT": 7938,
      "ĠMaÄŁ": 7939,
      "Ġedildikten": 7940,
      "ĠBey": 7941,
      "afik": 7942,
      "EF": 7943,
      "ita": 7944,
      "Ġ67": 7945,
      "Ġyapabiliyor": 7946,
      "Ġtopar": 7947,
      "ĠgÃ¶nderin": 7948,
      "ĠGEÃĩ": 7949,
      "ĠAM": 7950,
      "Ã¼c": 7951,
      "Ġ92": 7952,
      "Toyota": 7953,
      "ĠkÄ±ÅŁlÄ±k": 7954,
      "saat": 7955,
      "ĠOppo": 7956,
      "Ġverirken": 7957,
      "documents": 7958,
      "Mu": 7959,
      "eÅŁili": 7960,
      "DoÄŁ": 7961,
      "ulo": 7962,
      "BaÅŁ": 7963,
      "Ġiletebilirim": 7964,
      "ĠBalÄ±k": 7965,
      "ĠkullanÄ±c": 7966,
      "ĠArac": 7967,
      "tÃ¼s": 7968,
      "Ġurunum": 7969,
      "itamini": 7970,
      "ĠKartuÅŁ": 7971,
      "ĠÃĸrgÃ¼": 7972,
      "gilizce": 7973,
      "Ġarkadas": 7974,
      "zÄ": 7975,
      "zon": 7976,
      "ĠkalacaÄŁÄ±m": 7977,
      "Ġiplik": 7978,
      "iskon": 7979,
      "ĠVoltaj": 7980,
      "zÄ±": 7981,
      "Ġturuncu": 7982,
      "Ġdeseni": 7983,
      "Ġetki": 7984,
      "ĠsaÄŁlanmaktadÄ±r": 7985,
      "ĠBEDEN": 7986,
      "Ä±sÄ±nda": 7987,
      "avor": 7988,
      "ĠyapÄ±lmamÄ±ÅŁ": 7989,
      ":</": 7990,
      "Ġuyumlumu": 7991,
      "ĠSatÄ±cÄ±ya": 7992,
      "ĠyazÄ±lÄ±": 7993,
      "ĠÃĸncelikle": 7994,
      "azlÄ±": 7995,
      "ĠyerleÅŁtir": 7996,
      "Kur": 7997,
      "ĠÃ§iÃ§": 7998,
      "Mi": 7999,
      "egÃ¼l": 8000,
      "Ġinc": 8001,
      "CH": 8002,
      "ĠÃ¶nÃ¼nde": 8003,
      "Ġveriliyor": 8004,
      "abilme": 8005,
      "Ġsif": 8006,
      "Ġfonksiyon": 8007,
      "olyo": 8008,
      "Ġruh": 8009,
      "eÄŁendim": 8010,
      "ĠÃ§eki": 8011,
      "ĠiÅŁte": 8012,
      "Ġdegistir": 8013,
      "ĠIÅŁÄ±klÄ±": 8014,
      "ĠarttÄ±r": 8015,
      "ĠZÄ±rh": 8016,
      "ĠSayÄ±": 8017,
      "Ġsevdi": 8018,
      "Ġmdf": 8019,
      "obot": 8020,
      "ĠsÃ¼nger": 8021,
      "ĠkaÄŁÄ±": 8022,
      "ĠtÄ±kla": 8023,
      "ehra": 8024,
      "ĠÃ§evir": 8025,
      "ĠyaparsanÄ±z": 8026,
      "YÃ¼z": 8027,
      "ĠgÃ¶nderilmesi": 8028,
      "Ġbilek": 8029,
      "ĠkÄ±v": 8030,
      "ĠsaÄŁlanabilir": 8031,
      "Ġhepsini": 8032,
      "ĠBedeni": 8033,
      "FEN": 8034,
      "ĠÄ±cÄ±n": 8035,
      "hep": 8036,
      "ĠtanÄ±mlama": 8037,
      "Des": 8038,
      "ĠBilgisi": 8039,
      "nde": 8040,
      "190": 8041,
      "2012": 8042,
      "Ġpot": 8043,
      "ĠSandal": 8044,
      "ĠHiÃ§": 8045,
      "lt": 8046,
      "Ġbelirtiyorum": 8047,
      "ĠfÄ±rÃ§asÄ±": 8048,
      "ĠParfÃ¼m": 8049,
      "gÃ¶z": 8050,
      "ĠdiÄŁ": 8051,
      "Ġsade": 8052,
      "ĠSÃ¼pÃ¼r": 8053,
      "ĠalÄ±nmÄ±ÅŁtÄ±r": 8054,
      "ĠgÃ¶ndermeniz": 8055,
      "ĠÃ§alÄ±ÅŁÄ±r": 8056,
      "ĠKapasite": 8057,
      "artma": 8058,
      "dig": 8059,
      "Ġucret": 8060,
      "ĠfirmasÄ±nda": 8061,
      "Ã¼yÃ¼ÅŁ": 8062,
      "Ġoraya": 8063,
      "kun": 8064,
      "ibel": 8065,
      "Ġtonlara": 8066,
      "mÃ¼mkÃ¼n": 8067,
      "002": 8068,
      "Ġbildiriminizi": 8069,
      "ĠyanlÄ±": 8070,
      "Ġisterdim": 8071,
      "Ġolamaz": 8072,
      "Ġoldugunu": 8073,
      "ĠGlass": 8074,
      "ĠSweat": 8075,
      "erÃ§ek": 8076,
      "Ġmama": 8077,
      "ilmiyor": 8078,
      "ĠalÄ±nacak": 8079,
      "ĠkollarÄ±": 8080,
      "ĠeriÅŁ": 8081,
      "ĠYatak": 8082,
      "osh": 8083,
      "abiliyorum": 8084,
      "anoz": 8085,
      "Ġdijital": 8086,
      "lÄ±ÄŁÄ±nda": 8087,
      "aldÄ±ÄŁÄ±m": 8088,
      "udak": 8089,
      "Ġtablolar": 8090,
      "Ä°YAT": 8091,
      "ĠYayÄ±nevi": 8092,
      "125": 8093,
      "ĠgÃ¼venle": 8094,
      "Ġsahibi": 8095,
      "ĠverilmemiÅŁ": 8096,
      "alarca": 8097,
      "ĠSok": 8098,
      "ĠTemizleme": 8099,
      "yaklaÅŁÄ±k": 8100,
      "ses": 8101,
      "tigim": 8102,
      "ĠMo": 8103,
      "ĠYÃ¼k": 8104,
      "Ġtriko": 8105,
      "ĠkatÄ±lÄ±r": 8106,
      "Ġburak": 8107,
      "KalÄ±bÄ±": 8108,
      "Ġmanuel": 8109,
      "ind": 8110,
      "Ġamac": 8111,
      "ĠAtlet": 8112,
      "eliyim": 8113,
      "ĠGo": 8114,
      "ĠdÃ¼ÅŁÃ¼nmeden": 8115,
      "Ġyel": 8116,
      "astel": 8117,
      "io": 8118,
      "ĠgÃ¶rÃ¼ndÃ¼ÄŁÃ¼nden": 8119,
      "ĠgeÃ§ip": 8120,
      "Htc": 8121,
      "ĠkitabÄ±": 8122,
      "Ġ=": 8123,
      "imizin": 8124,
      "Ã¼rlÃ¼k": 8125,
      "Ġkisa": 8126,
      "meme": 8127,
      "ĠyapÄ±yorsunuz": 8128,
      "ĠAyn": 8129,
      "ĠgÃ¶nderiyoruz": 8130,
      "asyonu": 8131,
      "ĠkÄ±yafet": 8132,
      "ediÄŁimden": 8133,
      "ĠyapÄ±lamÄ±yor": 8134,
      "anlar": 8135,
      "miyorum": 8136,
      "ĠparÃ§asÄ±": 8137,
      "amla": 8138,
      "ĠbiÃ§": 8139,
      "ĠDep": 8140,
      "ĠgÃ¶nderdiler": 8141,
      "Ġtarak": 8142,
      "ĠÃ¼lk": 8143,
      "erit": 8144,
      "ĠarayÄ±p": 8145,
      "balaj": 8146,
      "Ġbayram": 8147,
      "YÄ±l": 8148,
      "Ġkordon": 8149,
      "yarÄ±n": 8150,
      "Ġresmi": 8151,
      "unny": 8152,
      "Ġkalk": 8153,
      "larÄ±mÄ±za": 8154,
      "ĠOlarak": 8155,
      "quid": 8156,
      "Ġgo": 8157,
      "ĠÃĩiÃ§ekli": 8158,
      "imdilik": 8159,
      "henÃ¼z": 8160,
      "Ġmg": 8161,
      "Ġnaylon": 8162,
      "acil": 8163,
      "ĠUYUMLU": 8164,
      "ĠÅŁubeye": 8165,
      "Ã¼ÄŁÃ¼nÃ¼": 8166,
      "Ġonaylanma": 8167,
      "sinde": 8168,
      "ĠÃ¼tÃ¼": 8169,
      "ĠyollamÄ±ÅŁ": 8170,
      "luetooth": 8171,
      "Ġkollu": 8172,
      "ĠcÃ¼zdanÄ±nÄ±za": 8173,
      "zninizle": 8174,
      "Ġnereden": 8175,
      "durum": 8176,
      "Ġkarttan": 8177,
      "Ġyerli": 8178,
      "usuz": 8179,
      "ĠYer": 8180,
      "Honor": 8181,
      "SA": 8182,
      "ĠBask": 8183,
      "edan": 8184,
      "Ã¼nÃ¼zÃ¼": 8185,
      "Ġmil": 8186,
      "EÅŀ": 8187,
      "saÄŁolun": 8188,
      "ĠKapÃ¼ÅŁonlu": 8189,
      "ĠsÃ¶ylediler": 8190,
      "ĠtanÄ±mlamasÄ±": 8191,
      "ĠtanÄ±mlanacak": 8192,
      "Ġgercekten": 8193,
      "irinÃ§": 8194,
      "ebilmektedir": 8195,
      "ĠMah": 8196,
      "ĠÅŁok": 8197,
      "latform": 8198,
      "lavye": 8199,
      "mos": 8200,
      "taÅŁ": 8201,
      "ical": 8202,
      "ĠAskÄ": 8203,
      "ĠAskÄ±": 8204,
      "ĠkaldÄ±k": 8205,
      "iril": 8206,
      "Ġaran": 8207,
      "Ä±rlan": 8208,
      "ĠuÄŁ": 8209,
      "Dekoratif": 8210,
      "Ġ220": 8211,
      "ĠMÃ¼rekk": 8212,
      "Ġolmaya": 8213,
      "Ġbedene": 8214,
      "FotoÄŁraf": 8215,
      "Ġexcel": 8216,
      "ĠÃ¼zÃ¼l": 8217,
      "Ġgelebilir": 8218,
      "ĠgelmiÅŁti": 8219,
      "eydi": 8220,
      "ĠgÃ¶rÃ¼ldÃ¼ÄŁÃ¼": 8221,
      "240": 8222,
      "ĠÃ§Ã¶zÃ¼lmesi": 8223,
      "Ġsunul": 8224,
      "OÄŀ": 8225,
      "ght": 8226,
      "Ġtep": 8227,
      "005": 8228,
      "ĠyanlÄ±ÅŁlÄ±kla": 8229,
      "merve": 8230,
      "kÄ±z": 8231,
      "Ġdemi": 8232,
      "260": 8233,
      "ĠamacÄ±yla": 8234,
      "ĠÃ¼rÃ¼nlere": 8235,
      "Ġedebiliyor": 8236,
      "oaw": 8237,
      "Ġhali": 8238,
      "Ġdemir": 8239,
      "ĠzamanlÄ±": 8240,
      "ĠgÃ¼ne": 8241,
      "ĠkalmadÄ±m": 8242,
      "ĠPaslanmaz": 8243,
      "Ġiletilecek": 8244,
      "Ġ2002": 8245,
      "ÅŁonlu": 8246,
      "izon": 8247,
      "maÄŁaz": 8248,
      "Ãĩift": 8249,
      "elerimiz": 8250,
      "arÄ±yla": 8251,
      "ĠkullanÄ±n": 8252,
      "ĠÃĸzelliÄŁi": 8253,
      "Ġalmaz": 8254,
      "ĠgÃ¼nÃ¼nde": 8255,
      "Ġyaprak": 8256,
      "Ġbezi": 8257,
      "ĠtesekkÃ¼r": 8258,
      "Ġlimitsiz": 8259,
      "ĠÃ¶zge": 8260,
      "ĠÅŁort": 8261,
      "Ġrenklerini": 8262,
      "ĠsaksÄ±": 8263,
      "ĠÃ¼rÃ¼nlerinizi": 8264,
      "LARI": 8265,
      "ĠhariÃ§": 8266,
      "ĠSah": 8267,
      "enize": 8268,
      "urken": 8269,
      "ĠgÃ¶rmÃ¼ÅŁ": 8270,
      "ĠHome": 8271,
      "ĠElastan": 8272,
      "Ġaff": 8273,
      "ĠGR": 8274,
      "Ä±lav": 8275,
      "mesaj": 8276,
      "ula": 8277,
      "ĠulaÅŁacak": 8278,
      "Ġ66": 8279,
      "kendi": 8280,
      "ĠZore": 8281,
      "catel": 8282,
      "ĠOdasÄ±": 8283,
      "ete": 8284,
      "ĠSÃ¼et": 8285,
      "alandÄ±r": 8286,
      "ĠiÃ§erisine": 8287,
      "Ġbedenim": 8288,
      "ĠUzunluÄŁu": 8289,
      "lÄ±klar": 8290,
      "selam": 8291,
      "ĠTesettÃ¼r": 8292,
      "Ġ--": 8293,
      "Ġcer": 8294,
      "ĠHan": 8295,
      "ĠyÃ¼zde": 8296,
      "ĠDerinlik": 8297,
      "Pembe": 8298,
      "ĠkalÄ±ptÄ±r": 8299,
      "indi": 8300,
      "ĠÅŀal": 8301,
      "Ġkitab": 8302,
      "ĠyoÄŁunluÄŁuna": 8303,
      "ĠÄ°LET": 8304,
      "ĠSÄ±r": 8305,
      "suna": 8306,
      "ĠsayfasÄ±nda": 8307,
      "Ser": 8308,
      "Ġbaglan": 8309,
      "imiyet": 8310,
      "Mak": 8311,
      "ĠAstron": 8312,
      "Ġdusun": 8313,
      "Ġvererek": 8314,
      "Ġcalismalar": 8315,
      "ĠgÃ¼Ã§lendir": 8316,
      "Yap": 8317,
      "Ġbizlerle": 8318,
      "Ġetmektedir": 8319,
      "Ġhesaptan": 8320,
      "Metal": 8321,
      "lamanÄ±z": 8322,
      "yanÄ±n": 8323,
      "ĠSeÃ§": 8324,
      "Ġyetkil": 8325,
      "Oy": 8326,
      "latÄ±cÄ±": 8327,
      "Ġ978605": 8328,
      "Hem": 8329,
      "ĠÃ¶ncede": 8330,
      "Ġtoplu": 8331,
      "sta": 8332,
      "Ġ89": 8333,
      "ĠKw": 8334,
      "Ã¼th": 8335,
      "Ġalabilirmiyim": 8336,
      "ĠolacaÄŁ": 8337,
      "Ġharicinde": 8338,
      "Ġyollar": 8339,
      "ĠarÄ±yorum": 8340,
      "Ä°lk": 8341,
      "Ġhediyeniz": 8342,
      "Hediye": 8343,
      "ave": 8344,
      "Ġarayarak": 8345,
      "uki": 8346,
      "Ġgecikmeler": 8347,
      "ouse": 8348,
      "ĠstoklarÄ±mÄ±zda": 8349,
      "ĠyÃ¶nde": 8350,
      "Ġmakyaj": 8351,
      "ayÄ±p": 8352,
      "Ġbirine": 8353,
      "ĠKoyu": 8354,
      "ĠÃ¼cretiniz": 8355,
      "boz": 8356,
      "Ġ93": 8357,
      "Ġ240": 8358,
      "ĠHac": 8359,
      "bun": 8360,
      "Ġtarihini": 8361,
      "Ġtekli": 8362,
      "Ġilg": 8363,
      "mama": 8364,
      "avsiye": 8365,
      "ĠgitmiÅŁ": 8366,
      "ĠmÃ¼zik": 8367,
      "Ġneredeyse": 8368,
      "ĠKolayca": 8369,
      "ÃĹ": 8370,
      "ĠAnahtarlÄ±k": 8371,
      "ĠbulamadÄ±m": 8372,
      "ĠtavrÄ±nÄ±z": 8373,
      "Ġgozukuyor": 8374,
      "tasÄ±": 8375,
      "ceÄŁim": 8376,
      "ĠCepli": 8377,
      "Ġoturdu": 8378,
      "Ġneyse": 8379,
      "ĠkodlarÄ±": 8380,
      "ĠyÃ¼zÃ¼nden": 8381,
      "lir": 8382,
      "ĠyansÄ±yacaktÄ±r": 8383,
      "ĠPARÃĩ": 8384,
      "ĠÃ§Ã¶zÃ¼n": 8385,
      "Ġboncuk": 8386,
      "Pr": 8387,
      "Ġyuvarlak": 8388,
      "Ġoluruz": 8389,
      "ĠGEN": 8390,
      "Ġanal": 8391,
      "ĠSÄ±cak": 8392,
      "ĠKiÅŁiye": 8393,
      "ĠSÄ±k": 8394,
      "Ġtelefonunuzu": 8395,
      "ÄŁren": 8396,
      "aydÄ±": 8397,
      "ĠsipariÅŁlerinizde": 8398,
      "ĠdiÄŁeri": 8399,
      "alarÄ±nda": 8400,
      "ĠtÃ¼ken": 8401,
      "ĠyansÄ±yacak": 8402,
      "duÄŁumuz": 8403,
      "ĠAlÄ±ÅŁ": 8404,
      "Ġuv": 8405,
      "ĠLÃ¼ks": 8406,
      "Ġbununla": 8407,
      "Ġvereli": 8408,
      "Id": 8409,
      "ĠPanda": 8410,
      "Ġiyil": 8411,
      "UC": 8412,
      "ĠSk": 8413,
      "Ġfotograf": 8414,
      "ĠhÃ¢": 8415,
      "ĠkullanÄ±larak": 8416,
      "ĠtarafÄ±mÄ±za": 8417,
      "2010": 8418,
      "Ġadresim": 8419,
      "itme": 8420,
      "ĠkalmadÄ±": 8421,
      "Ġaktarmak": 8422,
      "ĠÃ¼rÃ¼nÃ¼mÃ¼zÃ¼n": 8423,
      "ĠEÄŁer": 8424,
      "Mut": 8425,
      "eklam": 8426,
      "ĠsaÄŁlamanÄ±z": 8427,
      "tive": 8428,
      "Ġmasaj": 8429,
      "ĠkartÄ±na": 8430,
      "Ġkutuda": 8431,
      "Ġbecer": 8432,
      "Ä±pran": 8433,
      "ĠBataryasÄ±": 8434,
      "ÅŁÄ±k": 8435,
      "ĠgÃ¶rmedim": 8436,
      "ĠÃ§ekilmiÅŁ": 8437,
      "ĠdÃ¼ÅŁÃ¼yor": 8438,
      "irm": 8439,
      "Ġedilemez": 8440,
      "ĠEmici": 8441,
      "ĠpÃ¼rÃ¼zsÃ¼z": 8442,
      "ĠÃ¶zveri": 8443,
      "ÅŁah": 8444,
      "ĠLila": 8445,
      "ÅŁegÃ¼l": 8446,
      "Ã¼tÃ¼": 8447,
      "Ġbisey": 8448,
      "ĠoluÅŁturacaÄŁÄ±m": 8449,
      "ĠÃ¼rÃ¼nlerim": 8450,
      "ĠgÃ¼vencesi": 8451,
      "Ġ82": 8452,
      "ĠedildiÄŁini": 8453,
      "ĠasÄ±l": 8454,
      "Ã§iniz": 8455,
      "ĠCinsiyet": 8456,
      "ĠSÄ±v": 8457,
      "TIR": 8458,
      "ĠFÄ°YAT": 8459,
      "SE": 8460,
      "ĠKa": 8461,
      "ĠÃĸLÃĩÃľ": 8462,
      "ĠHizmet": 8463,
      "Ġpenye": 8464,
      "abÄ±lÄ±r": 8465,
      "ĠÅŁaÅŁ": 8466,
      "Ġsub": 8467,
      "Manken": 8468,
      "ðŁĺ": 8469,
      "Ġ76": 8470,
      "Ġyasal": 8471,
      "Ġsaf": 8472,
      "Ġmerkezi": 8473,
      "ĠyakÄ±ndan": 8474,
      "tÃ¼rÃ¼": 8475,
      "ĠgÃ¼venebilirsiniz": 8476,
      "Ġvida": 8477,
      "ĠPetek": 8478,
      "diÄŁimiz": 8479,
      "ĠolmaktadÄ±r": 8480,
      "ĠyÃ¼kl": 8481,
      "ĠrahatlÄ±ÄŁÄ±": 8482,
      "Ġsonucunda": 8483,
      "ĠsaÄŁlayalÄ±m": 8484,
      "gÃ¶rÃ¼ÅŁmemizden": 8485,
      "ĠKendi": 8486,
      "ĠsaÄŁlanamÄ±yor": 8487,
      "Ä°YAH": 8488,
      "ĠkatÄ±lmanÄ±zÄ±": 8489,
      "ayda": 8490,
      "106": 8491,
      "ĠulaÅŁtÄ±rÄ±lmasÄ±": 8492,
      "Ä±mÄ±zÄ±n": 8493,
      "Ġdeneyimi": 8494,
      "gmail": 8495,
      "Ġoyle": 8496,
      "Ġsizlerde": 8497,
      "Ġdediniz": 8498,
      "AltÄ±n": 8499,
      "Ġyokmu": 8500,
      "ĠÃ¼rÃ¼nlerden": 8501,
      "ĠbaÅŁlÄ±ÄŁÄ±": 8502,
      "ĠyapmanÄ±zÄ±": 8503,
      "Ã¼thiÅŁ": 8504,
      "****": 8505,
      "Ä±mlÄ±": 8506,
      "kem": 8507,
      "OC": 8508,
      "ĠÃ¶ncelikli": 8509,
      "sizlerin": 8510,
      "memek": 8511,
      "ĠÃ¶den": 8512,
      "kesinlikle": 8513,
      "Ġfincan": 8514,
      "ĠAYN": 8515,
      "no": 8516,
      "abilirmisiniz": 8517,
      "vo": 8518,
      "Ġ????": 8519,
      "ĠsaÄŁlandÄ±": 8520,
      "ĠTv": 8521,
      "Ġsonuna": 8522,
      "ĠsÄ±par": 8523,
      "Ġbatar": 8524,
      "Ġspar": 8525,
      "talebinizi": 8526,
      "Ġmaili": 8527,
      "DIM": 8528,
      "ĠhoÅŁuma": 8529,
      "ĠLÃľT": 8530,
      "ĠtuÄŁÃ§e": 8531,
      "Ã¼mde": 8532,
      "ÅŁan": 8533,
      "Ġdendi": 8534,
      "Ġyorumlar": 8535,
      "ĠiÃ§eriÄŁinde": 8536,
      "ĠsaÄŁlÄ±yoruz": 8537,
      "ĠLÃ¼x": 8538,
      "Ġtakibini": 8539,
      "ĠRaf": 8540,
      "Ġtrend": 8541,
      "ĠYapÄ±ÅŁtÄ±r": 8542,
      "ider": 8543,
      "ĠParÃ§": 8544,
      "ong": 8545,
      "Hyundai": 8546,
      "ekran": 8547,
      "KÃ¶": 8548,
      "Ġeks": 8549,
      "ĠLÃľTFEN": 8550,
      "ĠSneaker": 8551,
      "Ġyumus": 8552,
      "Ġbozuldu": 8553,
      "ew": 8554,
      "izik": 8555,
      "ĠseÃ§enekleri": 8556,
      "Ġiademi": 8557,
      "atya": 8558,
      "Ġbirisi": 8559,
      "kusurlu": 8560,
      "Ġrandev": 8561,
      "Ġ198": 8562,
      "siparisim": 8563,
      "Ġetiketi": 8564,
      "ÅŁikayet": 8565,
      "malara": 8566,
      "Ġentegrasyon": 8567,
      "ĠMod": 8568,
      "esiniz": 8569,
      "Ġfar": 8570,
      "ĠkenarlarÄ±": 8571,
      "ĠbaktÄ±m": 8572,
      "Ġbulunmakta": 8573,
      "yetik": 8574,
      "hur": 8575,
      "Ġpaslanmaz": 8576,
      "Ġ51": 8577,
      "ĠbaÄŁlanabilirsiniz": 8578,
      "atasÄ±": 8579,
      "Ġblok": 8580,
      "ĠUniversal": 8581,
      "Ġkendini": 8582,
      "oto": 8583,
      "Ġnefes": 8584,
      "ĠLambasÄ±": 8585,
      "Ġlinki": 8586,
      "Ä°ÅŀÄ°M": 8587,
      "Ġekleyerek": 8588,
      "004": 8589,
      "ĠDr": 8590,
      "Ġankette": 8591,
      "tÃ¼y": 8592,
      "emb": 8593,
      "Ġteslimi": 8594,
      "Ġyenil": 8595,
      "HiÃ§": 8596,
      "Ġfarket": 8597,
      "Ġekim": 8598,
      "ĠgÃ¶nderdiÄŁiniz": 8599,
      "ĠKot": 8600,
      "maÄŁaza": 8601,
      "ĠISO": 8602,
      "Ġdiren": 8603,
      "Ġusb": 8604,
      "Ġnadir": 8605,
      "ĠkÄ±ymet": 8606,
      "ptt": 8607,
      "Ġelektrik": 8608,
      "ĠDeÄŁerli": 8609,
      "ARKA": 8610,
      "ĠyaÄŁlÄ±": 8611,
      "ĠdoÄŁrudur": 8612,
      "ĠgeÃ§tiÄŁ": 8613,
      "bugun": 8614,
      "Ġkeyif": 8615,
      "ĠkaydÄ±nÄ±zÄ±": 8616,
      "anlayÄ±ÅŁ": 8617,
      "pili": 8618,
      "230": 8619,
      "yat": 8620,
      "ĠMeg": 8621,
      "ĠLight": 8622,
      "acaba": 8623,
      "Ġtahmin": 8624,
      "Ġihtimali": 8625,
      "ect": 8626,
      "Ã¼ÄŁÃ¼": 8627,
      "Ġfik": 8628,
      "ĠdanÄ±ÅŁ": 8629,
      "Ġsatici": 8630,
      "ĠGÃ¼nÃ¼": 8631,
      "Ġpen": 8632,
      "ĠAlan": 8633,
      "Ġferah": 8634,
      "ĠYastÄ±ÄŁÄ±": 8635,
      "ĠYazÄ": 8636,
      "ĠYazÄ±": 8637,
      "Ġmec": 8638,
      "ĠGrand": 8639,
      "ĠNew": 8640,
      "Ġsik": 8641,
      "Ġkavr": 8642,
      "ĠYerli": 8643,
      "Ä°YE": 8644,
      "Ġtart": 8645,
      "Ġalmama": 8646,
      "ĠKÄ±s": 8647,
      "Ġyazarak": 8648,
      "At": 8649,
      "eat": 8650,
      "Ġgoster": 8651,
      "icorn": 8652,
      "Ġbekleyebilir": 8653,
      "ĠEDER": 8654,
      "uflaj": 8655,
      "TROL": 8656,
      "Ġugras": 8657,
      "Ġulasti": 8658,
      "ĠAmer": 8659,
      "ĠPeluÅŁ": 8660,
      "Ä±lacaktÄ±r": 8661,
      "ĠbakalÄ±m": 8662,
      "ĠyapÄ±lmasÄ±nÄ±": 8663,
      "Ġdurumlar": 8664,
      "ĠkontrolÃ¼": 8665,
      "Ġbilginize": 8666,
      "ĠbelirttiÄŁim": 8667,
      "Ġzengin": 8668,
      "ĠBant": 8669,
      "ĠTe": 8670,
      "ker": 8671,
      "ĠMalzem": 8672,
      "ĠyapÄ±lama": 8673,
      "ĠbetÃ¼l": 8674,
      "bakÄ±n": 8675,
      "Ġ??.": 8676,
      "Ġgerekmekte": 8677,
      "lÃ¢": 8678,
      "ĠyazarsanÄ±z": 8679,
      "ĠNevresim": 8680,
      "antelli": 8681,
      "Ġ94": 8682,
      "HayÄ±r": 8683,
      "ĠayaÄŁÄ±": 8684,
      "ĠgeniÅŁlik": 8685,
      "Ġmerhabalar": 8686,
      "Ġyenisini": 8687,
      "terek": 8688,
      "Ġkiloya": 8689,
      "Kr": 8690,
      "ĠÃĩapÄ±": 8691,
      "ĠÅŁÃ¶yle": 8692,
      "Arac": 8693,
      "emektedir": 8694,
      "GÃ¶rÃ¼ndÃ¼ÄŁÃ¼": 8695,
      "GE": 8696,
      "Ġistemezdim": 8697,
      "ĠKav": 8698,
      "??.": 8699,
      "ĠEy": 8700,
      "ĠBaby": 8701,
      "ðŁı": 8702,
      "eÄŁen": 8703,
      "lenen": 8704,
      "Ġlog": 8705,
      "kuÅŁ": 8706,
      "Ġolabilirdi": 8707,
      "ĠkaydÄ±": 8708,
      "Ġsistemden": 8709,
      "ĠMatematik": 8710,
      "aze": 8711,
      "Ġgalaxy": 8712,
      "aik": 8713,
      "ĠaralÄ±ÄŁÄ±": 8714,
      "door": 8715,
      "Ġaral": 8716,
      "Ġgenelde": 8717,
      "Ġbitti": 8718,
      "±Ä": 8719,
      "Ġhasan": 8720,
      "Ġdiyebilirim": 8721,
      "Ġcunku": 8722,
      "Ġhel": 8723,
      "ĠÅŁubeden": 8724,
      "107": 8725,
      "Ġolay": 8726,
      "ĠFREN": 8727,
      "Ġsamimiyet": 8728,
      "ĠÃ¼stte": 8729,
      "ĠilettiÄŁ": 8730,
      "ĠgÃ¶rÃ¼ntÃ¼lemekteyim": 8731,
      "Gri": 8732,
      "leyin": 8733,
      "bl": 8734,
      "ĠyazmÄ±yor": 8735,
      "975": 8736,
      "ism": 8737,
      "ediÄŁimiz": 8738,
      "lenmesi": 8739,
      "ĠGeÃ§irmez": 8740,
      "ĠyÄ±lÄ±nda": 8741,
      "ĠeylÃ¼l": 8742,
      "ĠFen": 8743,
      "Ġboyunda": 8744,
      "mall": 8745,
      "ĠÃ¶mÃ¼rlÃ¼dÃ¼r": 8746,
      "Ġmot": 8747,
      "ĠAparatÄ±": 8748,
      "ĠGÃ¶n": 8749,
      "ĠistemiÅŁ": 8750,
      "ĠdÃ¼ÅŁÃ¼nÃ¼yor": 8751,
      "Ġ175": 8752,
      "ĠÃ¶nÃ¼ne": 8753,
      "ĠGe": 8754,
      "Ġdavran": 8755,
      "ĠgÃ¶stermiÅŁ": 8756,
      "ĠKitabÄ±": 8757,
      "dug": 8758,
      "mavi": 8759,
      "ekur": 8760,
      "Ġsatic": 8761,
      "MAZ": 8762,
      "ĠfÄ±rÃ§a": 8763,
      "ĠKONTROL": 8764,
      "ĠAstronot": 8765,
      "Ġordan": 8766,
      "ĠpÄ±nar": 8767,
      "Ġvur": 8768,
      "ĠGenel": 8769,
      "Son": 8770,
      "ĠAz": 8771,
      "smail": 8772,
      "asini": 8773,
      "Ġbej": 8774,
      "ĠkartÄ±mdan": 8775,
      "ĠDÄ°K": 8776,
      "Ġeser": 8777,
      "emelen": 8778,
      "ĠsÃ¶yledim": 8779,
      "ĠÄ°st": 8780,
      "Ġedilememe": 8781,
      "sÄ±nÄ±f": 8782,
      "Ġderken": 8783,
      "ĠaldÄ±nÄ±z": 8784,
      "mehmet": 8785,
      "ĠuzunluÄŁ": 8786,
      "ĠkullanmanÄ±z": 8787,
      "Ġbulundur": 8788,
      "ÃľrÃ¼nÃ¼mÃ¼z": 8789,
      "ĠdeÄŁerlisiniz": 8790,
      "ĠSevimli": 8791,
      "lisi": 8792,
      "The": 8793,
      "Ġtwoaw": 8794,
      "ĠtabanÄ": 8795,
      "ĠtabanÄ±": 8796,
      "ikan": 8797,
      "ĠsÃ¼recimiz": 8798,
      "ĠaÅŁk": 8799,
      "Ġbekledim": 8800,
      "talÄ±k": 8801,
      "Ġolunca": 8802,
      "ardin": 8803,
      "Ġcolor": 8804,
      "Ġsizce": 8805,
      "Ġbirsey": 8806,
      "Ã¶nceliÄŁimiz": 8807,
      "ĠdeÄŁilmi": 8808,
      "ĠfÄ±rÃ§": 8809,
      ".\"": 8810,
      "ĠDarbe": 8811,
      "ĠilettiÄŁiniz": 8812,
      "Ġaraba": 8813,
      "Ġbirini": 8814,
      "haf": 8815,
      "Es": 8816,
      "ĠMOD": 8817,
      "ilerini": 8818,
      "ĠgÃ¶rseldek": 8819,
      "ĠHafif": 8820,
      "Ġtemmuz": 8821,
      "Ġpakette": 8822,
      "eÅŁe": 8823,
      "Ġemz": 8824,
      "ĠaracÄ±nÄ±za": 8825,
      "Ã¼zgar": 8826,
      "Ã¼cÃ¼": 8827,
      "Ġnedenini": 8828,
      "ĠSap": 8829,
      "Ġindirime": 8830,
      "ĠgeniÅŁliÄŁi": 8831,
      "Ġeda": 8832,
      "ĠKend": 8833,
      "itroen": 8834,
      "AÅŁÄ±rÄ±": 8835,
      "gisayar": 8836,
      "ĠSw": 8837,
      "ĠbaÅŁlatÄ±": 8838,
      "VER": 8839,
      "Ġ84": 8840,
      "tandÄ±": 8841,
      "Ġdiyo": 8842,
      "amas": 8843,
      "Ġkalabilir": 8844,
      "ĠaslÄ±": 8845,
      "iÄŁine": 8846,
      "Ġbizzat": 8847,
      "Ġterlet": 8848,
      "ĠÃ§ekilen": 8849,
      "ĠDest": 8850,
      "ĠsaÄŁlamam": 8851,
      "max": 8852,
      "ĠAT": 8853,
      "Ġcar": 8854,
      "ĠÃ§alÄ±ÅŁtÄ±r": 8855,
      "Ġdoldurarak": 8856,
      "ĠaracÄ±lÄ±ÄŁ": 8857,
      "ĠtaÅŁlar": 8858,
      "ĠMotosiklet": 8859,
      "ĠdeÄŁerinde": 8860,
      "anÄ±zda": 8861,
      "Ġguncel": 8862,
      "ĠgeÃ§irmeniz": 8863,
      "ft": 8864,
      "ĠÄ°thal": 8865,
      "Ġnereye": 8866,
      "ĠuÄŁraÅŁmak": 8867,
      "ĠgÃ¶ndermiÅŁsiniz": 8868,
      "ĠaÃ§ma": 8869,
      "ĠSÃ¼tyen": 8870,
      "vel": 8871,
      "Ġgiyiyor": 8872,
      "Ġ78": 8873,
      "alarÄ±na": 8874,
      "ĠÃ§iziklerden": 8875,
      "Ġaksiyonlar": 8876,
      "Ġistedi": 8877,
      "ĠGecelik": 8878,
      "ĠÄ±ÅŁÄ±ÄŁÄ±": 8879,
      "ĠsaÄŁlÄ±cakla": 8880,
      "Ġch": 8881,
      "103": 8882,
      "epeti": 8883,
      "Ġdahilinde": 8884,
      "ĠBenz": 8885,
      "ĠTulum": 8886,
      "Ġhedef": 8887,
      "ĠPaketleme": 8888,
      "Ġgundur": 8889,
      "Ġmsj": 8890,
      "ĠtÃ¼keticiyim": 8891,
      "Ġkendine": 8892,
      "guzel": 8893,
      "Ġmodelin": 8894,
      "Ġbr": 8895,
      "ĠKalÄ±bÄ±": 8896,
      "ail": 8897,
      "ĠGece": 8898,
      "ĠduruÅŁ": 8899,
      "Ġbirinci": 8900,
      "ÃľK": 8901,
      "2015": 8902,
      "ĠgÃ¼venliÄŁ": 8903,
      "ĠayÄ±n": 8904,
      "Art": 8905,
      "ĠÅŀekli": 8906,
      "Ġonur": 8907,
      "pad": 8908,
      "ĠadaptÃ¶r": 8909,
      "ĠgÄ": 8910,
      "sab": 8911,
      "ĠiÅŁlemlerini": 8912,
      "Ġampul": 8913,
      "Ġtrendyola": 8914,
      "Sal": 8915,
      "stok": 8916,
      "ĠhesabÄ±na": 8917,
      "ĠPark": 8918,
      "ĠdÃ¼ny": 8919,
      "Ġmetin": 8920,
      "ĠgÄ±": 8921,
      "yken": 8922,
      "ĠAyna": 8923,
      "cegim": 8924,
      "Yaz": 8925,
      "Ġbahsed": 8926,
      "ings": 8927,
      "Ġfurkan": 8928,
      "dÄ±ÄŁÄ±na": 8929,
      "larÄ±nÄ±zÄ±n": 8930,
      "ĠBranda": 8931,
      "menin": 8932,
      "ĠTasar": 8933,
      "KÃ¼Ã§Ã¼k": 8934,
      "ĠkampanyasÄ±": 8935,
      "Ġalabil": 8936,
      "Ġsagolun": 8937,
      "ĠaskÄ±lÄ±": 8938,
      "Ġalet": 8939,
      "Ä±mdan": 8940,
      "ĠSevgiler": 8941,
      "ĠBody": 8942,
      "Ġvakit": 8943,
      "Ġkaybetmeden": 8944,
      "Ġhavlu": 8945,
      "ĠHp": 8946,
      "ĠLt": 8947,
      "Ġlas": 8948,
      "ĠMy": 8949,
      "Siz": 8950,
      "ĠsaÄŁlayabilir": 8951,
      "Ġolmasi": 8952,
      "ĠbaÅŁla": 8953,
      "Ã¼cre": 8954,
      "ĠBM": 8955,
      "uvalet": 8956,
      "ĠilettiÄŁim": 8957,
      "Ġverem": 8958,
      "sÃ¼l": 8959,
      "ĠkÄ±l": 8960,
      "Ġbuldum": 8961,
      "ĠÄ°ki": 8962,
      "ĠuygulamasÄ±": 8963,
      "teri": 8964,
      "ĠGÃľ": 8965,
      "ĠCev": 8966,
      "ĠMes": 8967,
      "ĠDiÅŁ": 8968,
      "Ġefsane": 8969,
      "ĠÃ§eÅŁitli": 8970,
      "ora": 8971,
      "ĠfiyatÄ±dÄ±r": 8972,
      "ĠsaÄŁlayabilmek": 8973,
      "ĠEdge": 8974,
      "Min": 8975,
      "ĠdÃ¶neminde": 8976,
      "Ġparaya": 8977,
      "Ġiyiki": 8978,
      "ĠalÄ±yorsunuz": 8979,
      "Ġkalp": 8980,
      "Ġdarbe": 8981,
      "efendim": 8982,
      "ÅŁi": 8983,
      "elan": 8984,
      "sag": 8985,
      "ader": 8986,
      ").": 8987,
      "Ġbulundum": 8988,
      "ĠoranÄ±": 8989,
      "Bel": 8990,
      "alardan": 8991,
      "ĠBar": 8992,
      "Ġkilit": 8993,
      "arma": 8994,
      "115": 8995,
      "Yorum": 8996,
      "Ġ74": 8997,
      "mng": 8998,
      "ĠgÃ¼venilir": 8999,
      "ĠtÃ¼l": 9000,
      "âĿ¤ï¸ı": 9001,
      "didas": 9002,
      "iyetinde": 9003,
      "talep": 9004,
      "aktÃ¼s": 9005,
      "ĠÃ¶lÃ§Ã¼s": 9006,
      "box": 9007,
      "tuÄŁu": 9008,
      "mAh": 9009,
      "Ġuzay": 9010,
      "dugu": 9011,
      "LÄ°M": 9012,
      "Ol": 9013,
      "Ġolmayacak": 9014,
      "mir": 9015,
      "lendirme": 9016,
      "aksi": 9017,
      "ternatif": 9018,
      "Ġorada": 9019,
      "Ġaleti": 9020,
      "Ġep": 9021,
      "ĠolduÄŁuna": 9022,
      "tsk": 9023,
      "OZ": 9024,
      "ĠLastikli": 9025,
      "ĠlikralÄ±": 9026,
      "ĠSand": 9027,
      "acto": 9028,
      "ĠbaÅŁvur": 9029,
      "ĠSeramik": 9030,
      "ĠAna": 9031,
      "ĠKafa": 9032,
      "Ġfiltre": 9033,
      "Ġifade": 9034,
      "Ġ165": 9035,
      "ilmeniz": 9036,
      "ĠHe": 9037,
      "Ġtrendyolda": 9038,
      "sipariÅŁinizi": 9039,
      "2016": 9040,
      "ĠaffÄ±nÄ±za": 9041,
      "erhat": 9042,
      "afer": 9043,
      "ĠzamandÄ±r": 9044,
      "Ġzamana": 9045,
      "lerdir": 9046,
      "ym": 9047,
      "mamÄ±ÅŁtÄ±r": 9048,
      "Ġzamanla": 9049,
      "ĠKen": 9050,
      "ĠTES": 9051,
      "Ġartik": 9052,
      "ĠkalÄ±plarÄ±": 9053,
      "ĠakÄ±ÅŁ": 9054,
      "ĠSET": 9055,
      "ĠCat": 9056,
      "sonra": 9057,
      "ĠÅŁubede": 9058,
      "ĠkorumasÄ±": 9059,
      "ĠHat": 9060,
      "121": 9061,
      "Ġbarda": 9062,
      "ness": 9063,
      "ĠMenÅŁei": 9064,
      "ĠVAR": 9065,
      "Alcatel": 9066,
      "Ġkutulu": 9067,
      "Ġverim": 9068,
      "ĠBox": 9069,
      "Ġdus": 9070,
      "Ġtalimat": 9071,
      "SÃ¼per": 9072,
      "ĠMaxi": 9073,
      "Ġ2003": 9074,
      "ĠdÃ¼ÅŁÃ¼nm": 9075,
      "ĠBoncuk": 9076,
      "Ġtv": 9077,
      "ĠUYGUN": 9078,
      "ĠgÃ¶nderiyor": 9079,
      "manÄ": 9080,
      "ĠbaÄŁlant": 9081,
      "2011": 9082,
      "ĠalÄ±yoruz": 9083,
      "ĠFigÃ¼rlÃ¼": 9084,
      "ich": 9085,
      "odyum": 9086,
      "ĠyazÄ±lmÄ±ÅŁ": 9087,
      "ĠGift": 9088,
      "ranit": 9089,
      "Spor": 9090,
      "manÄ±": 9091,
      "Ġtic": 9092,
      "ĠbelirtilmiÅŁ": 9093,
      "ĠmarkalÄ±": 9094,
      "ĠAstra": 9095,
      "Ġyav": 9096,
      "tedarikÃ§i": 9097,
      "Ġmuk": 9098,
      "asÄ±nÄ±z": 9099,
      "ĠveriÅŁ": 9100,
      "Ġarab": 9101,
      "Ġyeterlidir": 9102,
      "ĠOt": 9103,
      "issan": 9104,
      "ĠseÃ§ip": 9105,
      "ĠMikrof": 9106,
      "Ġseri": 9107,
      "ĠARACINIZ": 9108,
      "nm": 9109,
      "Ġ331": 9110,
      "ĠyÄ±ldÄ±zlarÄ±": 9111,
      "kac": 9112,
      "ĠSaten": 9113,
      "Ġnak": 9114,
[...]
